#version: 0.2
Ġ t
h e
č Ċ
Ġ a
i n
Ġt he
Ġ w
r e
Ġ s
Ġ o
â Ģ
h a
n d
o u
e r
i s
e d
Ġ b
Ġ m
i t
e n
o n
Ġ f
Ġo f
Ġ c
Ġt o
in g
o r
Ġa nd
l l
e s
a r
a n
Ġ d
a s
Ġ h
Ġ p
Ġ in
Ġ he
a t
l e
Ġ ha
Ġ n
âĢ ľ
o m
âĢ Ŀ
ha t
Ġ l
Ġ I
i c
o t
Ġb e
s e
Ġ y
s t
i m
Ġ e
o w
v e
Ġ g
i d
u t
Ġt h
en t
Ġw h
Ġw as
l y
Ġo n
Ġy ou
Ġt hat
l d
Ġ re
c e
g h
Ġh is
Ġ it
a l
it h
v er
i on
a d
i r
a y
e t
Ġw ith
u r
Ġ is
Ġa s
Ġn ot
Ġf or
Ġ u
Ġha d
r o
T he
gh t
âĢ Ļ
r i
a c
Ġs t
Ġ M
i ll
Ġw e
. âĢĿ
Ġa t
he r
Ġs a
ic h
Ġa n
a in
Ġs e
Ġh im
t er
re d
Ġm e
Ġwh ich
a m
ou ld
a nd
k e
Ġhe r
Ġm y
o o
Ġd e
c t
i l
es s
Ġha ve
Ġ âĢľ
p e
c h
i f
t h
Ġ A
Ġs o
a ll
t he
o re
r om
Ġ The
t e
Ġs u
Ġa ll
âĢ Ķ
i ght
Ġ H
q u
b le
ar d
Ġth is
r a
Ġ C
Ġ Ġ
t o
, âĢĿ
u l
Ġb y
Ġsa id
Ġb ut
ou s
Ġwh o
g e
om e
u s
Ġc on
re s
Ġd o
an t
Ġf rom
Ġ S
se l
Ġ B
ou r
? âĢĿ
Ġe x
Ġm an
n t
Ġon e
Ġ k
Ġ le
p p
l i
Ġ v
Ġs h
Ġw he
u st
Ġs he
es t
er s
at ion
Ġa re
Ġwe re
ver y
as t
or t
Ġf e
Ġ r
ar t
Ġ W
Ġn e
ou t
is t
Ġn o
e m
u n
o s
Ġl i
sel f
on g
Ġo r
in d
o l
Ġa l
Ġ T
Ġu p
on e
ou nd
Ġ F
Ġw ill
ha n
a u
a k
u m
r an
oo d
Ġthe re
ĠH e
Ġ P
Ġk n
Ġthe y
in e
Ġyou r
Ġ D
am e
o se
a p
c k
i g
he d
ou gh
Ġbe en
v en
at e
o st
as s
Ġthe m
it y
e ll
ou nt
Ġw ould
Ġc om
u re
Ġwhe n
i e
v ed
ur n
Ġ L
Ġa m
i ve
Ġ V
Ġw or
Ġa b
re at
f f
id e
Ġ j
h ing
Ġw hat
a g
k ed
a ble
Ġp ro
e l
er t
Ġa r
it t
e p
t her
Ġa g
a b
o nd
e ct
Ġthe ir
Ġm ore
Ġo ut
Ġt w
ad e
! âĢĿ
im e
ow n
u e
Ġp l
Ġ G
ar s
o d
Ġthe n
is h
Ġu n
a ke
Ġs p
o p
Ġ ro
en ce
a ce
i re
c c
Ġ E
ic e
Ġ if
ac k
Ġha s
m e
Ġs ome
Ġs ha
Ġ J
p t
at ed
h is
ĠĠ ĠĠ
an ce
Ġg o
at her
Ġin to
r y
Ġan y
o f
Ġ qu
it e
Ġc ould
Ġkn ow
f ore
a re
u d
Ġc an
Ġa d
w e
Ġd id
n g
Ġli ke
l o
Ġha nd
Ġt han
Ġ very
Ġo ther
Ã ©
res s
Ġse e
Ġ N
ot her
c i
v ing
ou ght
Ġu s
ĠI t
b e
e an
Ġg r
re e
i le
n e
nd er
w ay
m ent
r is
Ġt ime
Ġre p
o ve
Ġon ly
i es
Ġn ow
Ġo ver
Ġd ay
Ġp o
Ġ im
Ġ en
Ġd is
Ġtw o
oo k
Ġb l
Ġc l
f ter
Ġ O
Ġag ain
all y
Ġs ay
a ge
in k
Ġto o
Ġc h
n ess
Ġp er
Ġ R
w ard
i ous
w n
ing s
itt le
Y ou
p er
Ġm ust
Ġhim self
r u
a v
Ġsh ould
i ld
l ed
f ul
o ll
Ġl ong
Ġb r
u ch
Ġe y
Ġd es
on s
Ġp re
Ġse em
o ld
p l
- -
Ġc ount
Ġp ass
m an
Ġit s
w h
Ġre m
t hat
Ġm ade
Ġo ld
d e
ion s
Ġt r
ar y
u ll
ir st
f or
ig n
c l
os s
t ed
Ġl ittle
Ġth r
Ġe ven
an g
ac h
at h
ar i
Ġbe fore
Ġthe se
e nd
en ed
Ġ ent
Ġg reat
if e
Ġe very
Ġup on
p s
Ġg ood
f ort
Ġof f
Ġre t
Ġre s
Ġa fter
Ġab out
i z
is e
ri ed
Ġs m
Ġh ow
v es
c ed
i er
Ġm ay
ĠB ut
a ve
Ġsu ch
m b
n ot
n ing
H e
o g
Ġc ha
pe ct
ic k
or d
i ble
Ġbe c
ac t
Ġcon t
t y
ar k
ri ght
Ġu nder
Ġf irst
Ġsha ll
a red
f t
urn ed
Ġth ought
om ent
Ġo p
ou se
Ġo ur
he n
ĠM r
Ġm uch
Ġ ra
i ed
ĠV al
Ġp e
Ġo b
Ġey es
i x
e red
e ver
Ġyou ng
Ġf l
i p
Ġp r
Ġwith out
li ed
c y
Ġb o
Ġwhe re
re t
Ġwe ll
A nd
Ġy e
Ġa p
Ġs c
om et
Ġle t
Ġd own
Ġhe ad
Ġm oment
v ent
Ġo wn
l ess
Ġa cc
Ġth ose
m ed
g ed
Ġth ink
Ġp art
Ġs pe
Ġbe t
a ir
c he
ad y
Ġw ay
Ġdo or
Ġne ver
Ġhe re
âĢ ĺ
Ġm ight
i an
ri end
Ġst ill
r ow
ain ed
f e
Ġsa me
I t
Ġwor d
Ġc ome
ari us
Ã ¨
Ġbe g
Ġthr ough
re n
Ġc ar
Ġg l
th ing
Ġcom p
ĠM on
Ġm ost
l es
s h
ĠA nd
Ġj ust
Ġrep lied
ha le
ill e
Ġp res
Ġseem ed
in t
Ġbe ing
Ġm en
c on
Ġnot hing
s o
h y
Ġb ack
i ly
is hed
Ġf ather
Ġim p
Ġl ast
Ġc all
as e
at er
y ou
au se
ert ain
ward s
ak ing
Ġsa w
a il
Ġh ouse
Ġat t
u b
Ġw ent
Ġre c
Ġcon s
Ġm ake
Ġf riend
Ġth ough
or s
Ġs er
ow ed
Y es
w ith
n er
Ġn ight
m ost
Ġl ook
Ġe nd
Ġth ree
Ġl ight
w as
Ġl ife
in ce
ain t
Ġc ame
ris to
ĠM or
ul t
Ġch ild
l ing
Ġha pp
W hat
i v
Ġtoo k
m er
e x
ĠS he
c ha
re w
b er
et h
Ġap pe
j ean
Ġin st
o y
Ġf ound
Ġon ce
Ġh our
c hed
l s
im es
Ġs omet
ille fort
t te
ic t
or y
B ut
c es
Ġc o
Ã¨ s
l f
Ġm ar
ĠI n
ĠT his
is s
Ġle ft
Ġt ell
Ġha r
ĠC risto
Ġhe art
j ect
Ġa pp
Ġa way
, âĢĶ
: âĢĶ
d er
k s
Ġ You
Ġp ers
u p
Ġd ist
Ġw r
he re
Ġ ke
ad ame
ĠVal jean
b ert
Ġy et
Ġar m
u nd
ĠM arius
li e
Ġs l
ĠT h
Ġw om
Ġad d
ose tte
en s
ent ly
Ġro om
Ġse en
ow s
i red
Ġt ake
Ġw ind
s s
Ġse c
Ġwh om
l t
Ġt er
at ter
c om
Ġpl ace
au ght
ĠMon te
Ġp oss
Ġas s
ou b
in ed
p le
k ing
ĠThe re
Ġhe ard
e w
it her
an s
Ġwh ile
in s
way s
ce i
Ġas ked
re l
i gh
ĠThe y
l ars
oo ked
Ġ right
wh ich
o ice
ak en
ang lars
b ut
Ġcom m
ĠV illefort
a z
Ġf oll
Ġh o
Ġw hale
is ter
Ġn ame
ra ve
in ess
Ġl o
ation s
Ġs ir
ĠJ ean
Ġg et
p art
g et
ot h
a it
Ġt e
Ġhand s
Ġe ach
en er
Ġto wards
Ġde ar
E R
Ġe ver
Ġst re
Ġfe ll
Ġe ar
Ġc r
ĠG od
at ing
ĠA l
Ġb ar
t ain
d en
en e
ĠF ran
Ġfe el
Ġs ur
ow er
pp ed
we en
ar is
ha d
ct ion
ou d
Ġc or
u ed
Ġl ove
a w
Ġex p
ce pt
a id
c er
op le
re st
Ġm on
le ep
ver s
m p
Ġs il
Ġso on
Ġm ind
Ġmy self
Ġm or
os ed
Ġpass ed
Ġs ort
Ġpo or
u red
Ġal most
Ġc ertain
it ion
b y
Ġl ooked
m en
ou n
Ġre st
Ġa ff
N o
Ġf ace
Ġv is
Ġin s
Ġsu b
Ġc ried
Ġh or
Ġp ur
Ġin d
Ġst ran
d ay
nd ed
h im
r ac
Ġman y
re ad
Ġp ut
g er
he s
Ġs ou
Ġs et
Ġsu pp
a ut
p o
Ġa c
Ġs w
Ġ âĢĺ
Ġg u
Ġre ad
Ġne ar
Ġal ways
c ess
at ch
ĠS t
Ġfe lt
0 0
Ġs ide
Ġan other
Ġfe w
Ġgo ing
Ġth ing
I n
Ġd ra
Ġg ir
Ġwho le
ĠD anglars
Ġp le
li z
a le
Ġcon f
Ġwor ld
ĠN o
Ġc ap
on t
Ġop en
Ġ 1
it s
Ġagain st
ul ar
Ã© n
Ġye ars
Ġo cc
ĠC osette
t ing
O h
Ġa ir
i al
Ġha ving
Ġdo es
Ġf ar
Ġf ind
b r
Ġf our
Ġv oice
is ed
Ġin ter
st and
cei ved
Ġt urn
ha b
Ġg ive
C H
l ight
Ġsomet hing
Ġwom an
Ġre f
ac hed
Ġcall ed
ĠW hat
ant Ã¨s
Ġ ide
Ġg i
u g
Ġt urned
Ġd one
Ġt re
or m
ab eth
liz abeth
Ġha lf
ow ing
ut e
ress ed
W ell
Ġs ince
Ġc han
lo ck
Ġbet ween
er y
ent ine
t en
u res
ĠR ue
Ġm other
T his
Ġre g
Ġpo int
Ġw ant
Ġan s
Ġb ed
ent ion
sel ves
Ġpres ent
Ġcont in
es c
Ġth ings
T ER
ic al
te red
Ġret urned
Ġde ath
Ġbe lie
ĠA t
Ġin te
un e
Ġmor ning
c o
ar n
ĠP aris
Ġ _
Ġh um
und red
Ġst e
Ġf ull
ri age
Ġsu ff
Ġn at
ĠW e
us ed
Ġlet ter
v id
Ġ *
l ic
ac ed
u ck
A P
Ġc our
Ġm in
as ter
ro ss
ri ble
Ġs ign
r ic
ce ed
ĠĠĠĠ ĠĠ
ĠMor rel
ar ing
Ġr ound
Ġwho se
ĠAl bert
ha ps
Ġlong er
i b
at t
Ġpe ople
Ġde ad
ent le
ous and
oub t
it ed
ent s
ĠM adame
k en
Ġf am
Ġse a
Ġad v
Ġbe h
Ġne w
Ġal one
Ġword s
ran c
ur ing
s er
od y
AP TER
Ġal so
n ow
ab ly
n o
Ġto ld
iz ed
a im
et s
Ġbeg an
Ġpers on
o ke
Ġw al
an k
Ġsh ip
u al
Ġt aken
ap pe
ate ly
s p
l and
et y
Ġkn ew
ud e
Ġc ur
Ġd ark
CH APTER
Ġw all
Ġwh ite
d u
Ġar ri
er ing
Ġsu n
og g
Ġm is
a ver
ir t
th is
ĠThe n
Ġin de
qu e
Ġs at
ranc s
ĠA s
Ġf all
as on
er ous
Ġfor m
Ġcan not
w hat
ha ve
Ġf ore
Ġst r
ĠD antÃ¨s
Ġser v
id es
Ġspe ak
A t
an e
The re
Ġgir l
v ol
Ġwor k
ar m
Ġd if
Ġn or
Ġday s
re ady
Ã©n ard
ing le
Ġin f
Ġs leep
Ġb re
ie ur
st er
T hat
Ġc he
un g
Ġt al
Ġh undred
f ull
ent y
p ro
Ġb oth
ain s
Ġqu ite
Ġbec ause
ĠF ogg
Ġd ire
h o
w er
ons ieur
Ġw ish
ĠW hen
The n
Ġbl ack
Ġent ered
. .
b ed
Ġe ff
Ġh on
Ġw ait
Ġin t
Ġor der
Ġex cl
e y
al m
Ġk ind
o is
Ġ ir
he ad
Ġsm all
Ġl ar
f ect
Ġp ol
Ġth ousand
ill ed
Ġm atter
Ġf o
Ġc are
Ġbo at
l ong
Ġb ro
Ġf act
v al
Ġa w
Ġher self
Ġany thing
l ish
Ġfe ar
s u
o ver
Ġg entle
Ġf rancs
am p
Ġret urn
Ġop ened
ut ion
Ġeven ing
g r
. âĢĻ
Ġm o
Ġple as
A h
at es
Ġgr and
Ġs ix
Ġle ast
ne y
Ġam ong
Ġg ave
Ġex t
itt ed
m pt
Ġw ater
Ġ ri
Ġd et
as se
le t
Ġho pe
as h
Ã©nard ier
Ġs k
Ġs im
full y
m y
w here
Ġhow ever
mb er
Ġfor t
Ġst ep
Ġsa il
the re
c ul
ĠH is
ĠE lizabeth
Ġa ct
Ġf ive
i a
m on
Ġe l
Ġg ener
ĠB e
ĠL u
Ġhe ar
aught er
d o
Ġ ut
Ġth us
u nt
ove red
Ġunder stand
ut h
ĠĠĠĠ ĠĠĠĠ
ĠVal entine
r or
y ing
re am
or row
Ġsec ond
get her
Ġbeh ind
ie ld
ris on
Ġl ess
Ġme an
ĠI f
Ġ K
Ġd oubt
ĠF or
âĢĶ âĢĶ
Ġle ave
Ġbet ter
Ġsou l
s c
Ġfe et
Ġs ister
Ġcha r
v il
Ġin c
ĠE ng
b l
th s
aim ed
Ġf r
Ġc ond
ot ion
o ck
ro om
Ġal ready
Ġhar d
Ġcontin ued
ot t
a x
ac es
Ġrem ained
S he
Ġqu est
Ġide a
Ġsu re
ard s
a ven
Ġinde ed
Ġ ill
Ġs ound
er n
Ġab s
Ġad m
che s
: --
an y
ant s
d den
it ies
Ġp rom
Ġhe l
Ġbe aut
p re
Ġs ight
ĠT hat
ĠFran z
Ġlar ge
M y
Ġstran ge
Ġ Q
ĠC ha
ment s
it ude
Ġb ene
Ġappe ar
Ġbelie ve
as k
ir c
th ough
Ġb est
li ke
Ġadd ed
Ġc le
A s
Ġen ough
x t
Ġt ran
Ġl ost
ct ed
ĠA hab
Ġman ner
Ġsu dden
Ġr ather
Ġpro f
T h
Ġs we
Ġm ist
an ces
Ġst ru
Ġke ep
Ġ .
Ġne ed
en g
Ġst and
ĠO n
Ġtr ue
Ġ esc
Ġre d
Ġli ve
aver t
e c
Ġre ally
Ġf in
ir d
Ġb ur
b o
c lock
âĢľ âĢĺ
ri e
u ally
Ġm id
Ġh old
Ġe le
f rom
Ġt en
Ġbec ome
H ow
al s
Ġinst ant
Ġc ase
ĠA ll
Ġper haps
Ġt able
Ġey e
W hen
Ġd r
Ġp ap
ut es
Ġevery thing
Ġappe ared
ak es
Ġt imes
Ġst ood
ĠS aint
s he
Ġbec ame
Ġthem selves
g g
Ġl ay
og n
Ġhour s
Ġs ent
Ġl ist
Ġde ep
ĠC h
Ġyour self
for m
Ġm ur
en n
if ic
W e
a ving
Ġt ill
Ġsu m
Ġexcl aimed
ĠC ount
ĠO ne
Ġarm s
Ġde p
wh o
Ġhapp y
Ġ Y
Ġf ire
p h
w ill
Ġw atch
ell e
Ġapp ro
Ġ ve
ard en
Ġhum an
f er
in a
d is
Ġb es
ĠM y
Ġar ound
I I
p ris
Ġg az
ce ll
ad erous
ri g
Ġal ong
Ġgi ven
aderous se
id er
ar cy
Ġp ower
Ġl au
Ġd on
id ed
il ed
Ġpl aced
u se
Ġcl ose
Ġy es
n ight
in es
Ġposs ess
u nder
Ġd i
pect ed
Ġter rible
b our
Ġs on
Ġm aster
Ġh ome
Ġh igh
Ġl ow
Ġo pp
Ġf ur
Ġp ri
Ġposs ible
Ġexp ress
Ġt ri
Ġhe ld
Ġsh ort
Ġj oy
Ġc old
Ġd ro
qu ired
f ic
Ġwh y
ect ion
Ġt ou
Ġl and
we red
oss ible
id ent
Ġear th
a pp
Ġg one
Ġp rison
Ġu nt
Ġme ans
Ġtw enty
p ed
Ġsha d
re nt
Ġc reat
Ġe as
ĠS o
Ġre l
part out
asse partout
Ġcour se
Ġfam ily
n ed
Ġre al
Ġre ason
oo l
Ġpro p
Ġcar riage
one y
Ġwind ow
Ġit self
Ġex c
a pe
il ity
Ġob ser
the m
Ġother s
cer f
h ile
Ġb reat
Ġbl ood
Ġsm ile
Ġha st
um ed
b and
Ġt ra
Ġd est
Ġat te
Ġbr ought
ix ed
er m
Ġex ist
re m
Ġst art
Ġde c
ond er
Ġ (
Ġwith in
ĠD arcy
Ġf lo
Ġcount ry
e ad
p ar
Ġcon v
Ġstre et
g o
nd ing
The y
we re
r as
ar ter
Ġg ot
Ġen g
Ġfriend s
Ġg lo
Ġas k
ĠA r
the y
ĠTh Ã©nardier
Ġd uring
if ul
ĠMr s
w ing
ĠP e
en se
Ġof ten
ect ed
ci ous
Ġsay ing
D o
Ġd ie
Ġne xt
r ing
v i
re en
ad em
ie f
ru pt
er c
Ġc ent
Ġcom ing
Ġans wered
O n
u ff
ou th
Ġc ol
, âĢĻ
o b
w or
Ġin v
Ġ1 8
Ġu se
ĠH ow
a ire
i ent
ot hy
Ġb ody
or othy
b Ã©
i ar
in ct
ay ed
ish op
appe ared
W hy
w o
Ġt rave
ou ra
Ġf if
ound ed
k n
Ġc irc
ĠT o
ren ch
an c
Ġper fect
Ġdes p
Ġto gether
ĠD e
Ġgr ound
ll ed
ing ly
Ġh us
Ġne cess
Ġfell ow
ĠEng lish
Ġw ife
Ġha t
Ġr un
Ġmin utes
a h
ct or
Ġv i
Ġrem ain
w ould
in ted
Ġd ream
med i
f ather
in ation
Ġd aughter
Ġe ight
Ġra ised
Ġcomp le
Ġc ast
Ġc ross
Ġp ar
per i
Ġvis it
c ount
Ġw ha
Ġb us
as ed
Ġan g
Ġro se
Ġsomet imes
l er
p id
Ġkn own
f ied
Ġfo ot
Ġro ad
ou ble
Ġrem em
ĠMor cerf
Ġunt il
Ġa ble
ie w
ren ce
J ean
m ing
Ġm ad
h il
ag es
Ġsil ence
ha pp
Ġseem s
Ġfoll owed
Ġm oney
ar ch
ter n
Ġso ci
Ġex cell
ious ly
Ġp ale
ic es
ĠC aderousse
ois elle
ha nd
is ing
Ġf a
or n
Ġme et
ub b
Ġquest ion
adem oiselle
M arius
Ġc ut
Ġe vid
. _
Ġc alm
Ġg arden
irt ier
Ġc e
ry ing
ĠO h
Ġsec ret
Ġb it
Ġto r
Ġst ra
d m
g es
Ġf ine
T o
s ide
us hed
Ġab ove
Ġob ject
Ġbene ath
y our
Ġd rew
Ġst o
Ġir on
a used
y ed
Ġt aking
Ġg rave
air s
Ġbeg in
Ġm ag
Ġre pe
Ġpro b
av es
g s
Ġ U
Ġdis c
Ġsur pris
Ġm et
on es
Ġsp oke
ha m
Ġm ount
en cy
Ġcon ce
Ġex am
ap tain
Ġsub ject
Ġinte rest
w ell
Ġha ir
Ġst ud
res h
Ġar t
enn et
Ġm aking
Ġre ached
the ir
I f
c ome
im p
Ġre ceived
Ġwor th
Ġw ood
Ġs y
Ġhe aven
ĠJ avert
g ing
u ght
y e
Ġacc om
H E
at s
Ġwhe ther
Ġr an
m ore
u es
Ġ X
Ġs it
Ġl ad
Ġhus band
dm ond
S o
as ion
Ġres pect
iz e
Ġlook ing
Ġhel p
Ġp ort
Ġrec ogn
Ġf ree
Ġp ost
um b
A l
p an
ĠP ro
ck et
re a
ar se
an ced
Ġthere fore
Ġqu ick
om y
Ġcont r
Ġarri ved
c ri
w hen
Ġde m
Ġacc ount
ingle y
s pe
Ġsudden ly
Ġex cept
Ġent ire
c ons
f l
Ġf ast
ir m
Ġstr ong
Ġbre ak
at han
Ġth ou
Ġnat ure
Ġb u
Ġp at
ent ed
al ed
ĠD orothy
Ġres ol
p ass
s ed
Ġl aw
ust om
Ġchild ren
h ow
in ing
st r
im il
Ġbar ric
Ġlau gh
en ess
Ġh ur
Ġp ast
ie ce
fe rent
o ly
s ha
Ġb ad
Ġm er
Ġre ady
ce ive
ro che
ĠS e
A ll
in ter
Ġl a
ve l
Ġsp ir
av roche
Ġfort une
Ġel se
Ġe ither
ĠF au
Ġans wer
ceed ed
g ot
o red
p r
le vent
se mb
ur y
ĠM iss
ĠL e
p ose
Ġw ar
Ġw ild
Ġst ri
ive ly
itt ing
ret ched
Ġvi ol
en ing
Ġp ay
ow ers
ĠF rench
Ġbo x
fe rence
re ly
Ġp ain
ver al
ĠHe ls
ĠV an
Ġstru ck
ĠHels ing
M r
s ome
ĠB ennet
Ġli ps
Ġdes ce
de red
che levent
Ġs ing
Ġs ad
Ġf ixed
Ġsee ing
eng th
a j
Ġp en
Ġe qu
os ition
be en
Ġcl osed
ur al
Ġbr other
Ġatt ention
Ġhapp iness
ou is
Ġf right
Ġg all
us h
Ġfr ont
Ġbeaut iful
Ġto wn
le ine
ade leine
Ġcons ider
Ġcap tain
Ġref le
Ġle ad
t r
Ġb ott
Ġgener al
Ġe m
ub lic
medi ately
r id
ot s
Ġex pl
ĠD o
Ġeff ect
Ġswe et
c an
he ld
Ġd ut
Ġe mb
Ġqu arter
N ow
il ing
Ġso l
ra ce
ors es
Ġcertain ly
Ġt em
Ġd u
t on
Ġre qu
Ġen c
s m
Ġknow s
Ã© d
o le
Ġd ri
Ġde part
ĠA n
ĠP assepartout
Ġye ar
c ent
c are
ic ked
ĠB ar
ag ed
Ġpart ic
Ġcor ner
Ġhon or
Ġa ge
Ġm ove
Ġso ld
Ġke pt
Ġf at
Ġfor th
Ġoff ic
Ġcar ried
i ers
Ġb ook
it ation
Ġde light
Ġj our
Ġpro du
Ġpap er
ign or
ax imil
aximil ian
a ff
Ġd iv
te en
ĠB ingley
Ġpl ay
ĠN ow
sh ip
Ã ¢
Ġa st
Ġw onder
cul iar
Ġpre t
Ġgl ass
Ġgl ance
Ġimp ossible
Ġe vent
al th
Ġan x
Ġcon vers
Ġsc ar
N ot
Ġgo ld
Ġbr ing
Ġwom en
Ġstep s
c han
st ood
ĠNo irtier
Ġc ause
Ġv iew
Ġli ving
um st
ci ence
L et
Ġw at
Ġf av
il es
Ġra pid
ĠFran ce
kn own
m in
m orrow
ha r
Ġm ention
Ġl ength
ĠI s
ic ed
Ġbe long
Ġse veral
ĠLu cy
Ġbarric ade
b re
al ity
ĠM onsieur
erc Ã©d
ercÃ©d Ã¨s
u ous
Ġb ank
Ġf an
ot e
Ġor d
00 0
b s
g l
v o
Ġl ine
Ġu nd
ist s
ist ed
Ġcom es
Ġob li
Ġturn ing
Ġesc ape
e very
Ġan n
wh ile
ĠAnd rea
Ã ī
is hing
Ġpo cket
Ġtr uth
Ġmon ths
Ġac qu
u c
en orm
em ent
Ġqu i
Ġim ag
Ġfoll owing
Ġsat is
the n
Ġj o
ci ent
Ġflo or
ĠH er
Ġcon cer
Ġocc asion
Ġappear ance
b ody
Ġm outh
Ġhe av
ĠThe se
f ast
f act
j ol
Ġst ate
um e
Ġacc ord
e que
Ġt one
Ġd ang
ĠM adeleine
ĠW hale
um p
ue eque
ĠN ot
cha mp
ueeque g
ĠW ell
Ġthought s
c row
n jol
Ġs al
ha nt
it ated
Ġfor med
te au
Ġkn e
ĠE dmond
led ge
Ġnecess ary
njol ras
Ġc aught
ar b
ĠB ishop
ĠJ ane
him self
âĢĶâĢĶ âĢĿ
Ġent er
Ġnear ly
Ġocc up
Ġgentle man
rie f
Ġg reen
um ber
el s
Ġcl oud
Ġdif fic
Ġpol ice
ĠBe au
Ġut ter
C osette
a f
Ġn am
Ġr u
ag er
Ġag o
oura ge
Ġcomple te
Ġsto pped
Ġast on
C ome
d es
Ġm ass
en ance
Ġde ck
Ġle arn
Ġsp ot
av al
Ġhor se
m s
it ch
at ive
Ġab bÃ©
Ġsay s
Ġpleas ure
o ff
ag ue
cc ess
Ġres umed
Ġtre es
Ġwal ked
Ġbro ken
A n
I s
ie u
Ġj ud
att le
I N
b it
t ime
ant ly
Ġk ing
ran ce
Ġstran ger
c ould
i ence
Ġ âĢĻ
Ġr ich
Ġne ither
Ġsl ow
Ġh orses
Ġhis t
Ġdo ctor
Ġdark ness
e k
Ġs qu
ou l
ay s
Ġse ized
Ġde v
Ġcle ar
enorm and
ill enormand
ter s
Ġcon st
ound s
Ġsha r
Ġdire ct
Ġm od
Ġc oll
the less
ian s
con t
d le
Ġs ens
Ġm ine
Ġf illed
Ġc and
Ġc ry
ce ly
Ġal though
z e
Ġa f
Ġde l
il t
ĠC aptain
ĠJ on
for med
Ġcomm and
ĠSt ubb
Ġe at
Ġdist ance
oun ced
ri es
Ġpres ence
Ġpur pose
g u
Ġ ed
ic ally
Ġim mediately
Ġpre c
Ġpe culiar
Ġpr ay
Ġdut y
O ne
is hes
Ġb ig
Ġm ill
Ġl aid
ve re
ng th
vol ution
p res
Ġw ished
Ġf air
as ure
Ġbus iness
b or
i o
l ow
w he
Ġ es
Ġc ra
at ure
Ġst one
Ġsh ut
ail ed
Ġpret ty
t s
Ġse ated
itt en
ond on
ĠG avroche
fort un
Ġpe ace
Ġsl ight
Ġstand ing
Ġc ab
Ġc row
Ġv es
Ġdis appeared
Ġinst ead
ib ly
Ġtrave ll
Ġs ingle
Ġfor mer
Ġrep ly
Ġsupp ose
Ġhard ly
care crow
m n
Ġb and
Ġm otion
ĠM ademoiselle
ant ine
ress ing
Ġus ed
Ġmur m
Ġsit u
Ġves sel
f ess
i ps
Ġl ater
Ġfor ward
Ġbl ue
Ġdesp air
Ġdem and
! âĢĶ
in ci
Ġf ig
ch ing
th r
ag ain
ish ment
Ġpre p
ĠĠĠĠĠĠĠĠ ĠĠĠĠĠĠĠĠ
Ġperfect ly
_ ,
c ar
Ġf re
au d
ĠMon t
sh ould
Ġtal k
hile as
V al
Ġ 2
Ġt ried
Ġh op
ĠI nd
Ġe re
Ġde f
Ġso le
ap ed
Ġbo y
Ġfur ther
w ise
on y
ir ty
ĠM aximilian
if ied
Ã© e
Ġdra wing
Ġchan ge
Ġserv ice
Ġexpress ion
c r
h ouse
Ġf urn
ur ch
Ġpl an
Ġun e
Ġper m
Ġper ceived
Ġrepe ated
? âĢĶ
t han
in ary
Ġs ac
im ent
ut ure
Ġme l
Ġdo ing
ĠW hy
Ġdis p
Ġpr ot
Ġac cept
br ay
Ġchan ce
Ġshad ow
ĠFau chelevent
Ġjour ney
B e
F or
is m
Ġto p
an ch
Ġde cl
us ion
a fter
e av
ol ute
Ġop in
Ġte eth
Ġserv ant
Ã¢ teau
h ood
Ġm akes
ad es
Ġde al
os ing
Ġro ck
Ġus ual
Ġdes ire
Ġspe aking
b ar
o es
it ing
Ġp aid
ac hing
li ve
be fore
Ġpass ing
Ġcomp an
n y
in ner
Ġm aj
Ġc overed
Ġfor get
Ġme m
pp ing
ĠL et
Ġcha ir
s aid
is to
Ġl atter
ic ated
ous ly
Ġdif ferent
Ġbreat h
Ġcirc umst
Ġt ry
Ġw it
Ġd read
le g
om an
Ġse lf
Ġex act
Ġne igh
Ġbegin ning
c le
re g
Ġin qu
Ġl ady
se qu
Ġe mp
ir ation
Ġst ory
Ġle g
Ġco ff
Ġbar on
Ġfeel ing
Ġsoci ety
M on
p ter
t wo
Ġb all
ra id
Ġbl ind
p on
r on
Ġth ick
ĠM ercÃ©dÃ¨s
pe nd
ĠL ondon
Ġpre vent
Ġap art
Ġhar po
Ġocc ur
ĠBeau champ
in y
ill es
Ġli ved
ell ow
ert ed
ĠG illenormand
pl ace
rac ter
Ġremem ber
Ġbott om
l ook
Ġf resh
all ed
Ġall ow
Ġex pect
ĠW ith
E lizabeth
j oy
Ġo ught
ro p
Ġsu c
Ġpre v
ster ious
j o
y ond
on ly
Ġcha mber
Ġbec om
Ġhapp ened
Ġreg ard
Ġbes ide
Ġw ine
ha s
os op
ĠF ix
Ġcom pl
per m
ang u
ern and
ĠQ ueequeg
happ y
in al
Ġc re
Ġn one
Ġl ower
Ġbe held
Ġe vil
id ence
Ġpl ain
Ġsp o
Ġsim ple
Ġtran s
Ġeas y
? âĢĻ
m a
Ġd en
Ġar ran
Ġconvers ation
a wn
e ven
in to
Ġm ed
Ġth ird
ĠS carecrow
are nt
Ġlo ved
Ġwha les
arb uck
j ust
Ġm ark
Ġf uture
Ġn ar
id ing
Ġfor got
Ġde g
Ġv ast
Ġsh ud
ort ed
ail s
Ġexcell ency
Ġpartic ular
Ã ¦
Ġbe ll
ant i
not hing
Ġprom ise
l ittle
n ers
s pect
y d
er able
Ġc iv
Ġl ed
âĢĶ âĢľ
Ġle aving
ap ole
Ġbur st
S t
p it
Ġc rew
se t
ad ed
ĠM ina
Ġr is
ick ham
cha r
Ġstre ngth
Ġsil ent
Ġcond u
Ġqui et
M onsieur
O N
a ly
c ase
r ate
s omet
Ġ est
Ġd ied
Ġme ant
Ġso ft
Ġcount enance
Ġaff ection
Ġtre mb
Ġprof ound
anch oly
A R
d ing
h or
Ġin quired
at ic
ard on
Ġk ill
Ġle an
Ġsh out
un s
Ġrem ark
He re
Ġfeel ings
Ġnat ural
Ġut tered
Ġatte mpt
Ġke y
Ġcreat ure
Ġobser ved
Ġprob ably
Ġheav y
i ves
o h
v is
Ġl ate
Ġre nd
ke y
Ġbr ow
Ġunder stood
Ġsc ene
H is
Ġb ran
ke ep
Ġsu ccess
ĠC our
Ġex pected
Ġcom b
Ġthink ing
Ġco at
ĠQ u
W ho
b et
p ly
r ant
Ġl ab
Ġth rew
ous es
ĠHe re
Ġbo ard
Ġmar riage
Ġconv ict
t re
Ġh ung
ain ing
ess ed
ge l
us s
ĠL ouis
bert y
Ġwal k
M adame
e ks
y rac
re c
Ġf le
Ġf irm
Ġtou ched
Ġfif ty
Ġentire ly
apole on
Ġbe yond
ri b
Ġse par
Ġsu per
ĠL a
Ġend eav
Ġple ase
Ġdr ink
Ġslow ly
Ġhist ory
Ġs pect
Ġl if
Ġwh is
ood man
oll ins
Ġte ars
Ġdire ction
Ġmid st
k es
Ġa uth
Ġf ing
Ġbe ar
Ġre semb
ac ing
ĠC ar
Ġne ck
Ġun known
fe yrac
Ġfoll ow
Ġglo omy
ĠDe bray
E S
f ace
i res
in te
Ġp or
Ġp ity
et t
ash ion
Ġgaz ed
i or
Ġs n
Ġm adame
pp er
ort un
ĠP l
Ġch ief
iss ion
Ġvis ible
Ġsk y
f ield
o pe
ll ig
ter day
Ġall owed
el ve
Ġafter wards
Ġlo ck
Ġadv anced
Ġeff ort
e ar
Ġs le
Ġm us
Ġl ose
ain ted
Ġse ven
Ġde vil
ĠA fter
Ġcon te
Ġex ec
Ġpers ons
Ġac ross
fess or
o cc
u ish
om s
Ġth y
th ought
Ġk illed
up on
Ġstra ight
Ġscar cely
ou red
se c
em ed
one l
ĠL ion
Ġwhat ever
ab out
Ġcha racter
Ġgu ard
Ġgrand father
M or
c ertain
e ed
Ġ ver
es ides
Ġp un
ut ed
Ġfor ce
ac ked
ĠC om
os ite
ĠE m
with out
Ġwr ite
Ġter ror
Ġpresent ed
._ --
Ġaf raid
V illefort
er ved
Ġb ird
Ġe mpt
Ġno ble
ĠR e
fort une
Ġwr ong
Ġstre ets
Ġsuff ic
Ġopin ion
g reat
Ġc al
Ġc ourage
Ġp ublic
Ġe ager
sel ess
Ġv al
os ity
Ġser ious
Ġcomm un
Ġsurpris e
Ġcrow d
3 0
Ġin cl
Ġme rely
qu od
ĠB y
Ġv an
ĠP r
urn ing
ĠL ord
Ġgo ver
Ġwind ows
Ġwait ing
bo ard
Ġbreak fast
. ,
k now
Ġfor ced
ĠA h
Ġex peri
Ġcom fort
Ġcl ot
Ġrec oll
ĠSt arbuck
Ġabs olute
Ġprison er
aval c
Ġauth or
e u
Ġw arm
Ġh ide
Ġp iece
se e
Ġan im
ust ed
ĠW oodman
ond ret
Ġen em
Ġtr ain
men se
Ġopen ing
.. ..
Ġlist ened
Ġdest ro
Ġobli ged
avalc anti
c ing
u cc
Ġm ut
Ġp hil
ro du
Ġmy sterious
oo se
il s
est ed
ĠT HE
Ġpro c
ĠE njolras
Ġdes cri
Ġaff air
Ġset t
Ġide as
Ġinc re
yd ia
d ra
ĠB l
Ġsp ite
Ġcr ime
Ġsw ord
uck et
Ġappro ached
Ġeas ily
Ġmag n
, --
d id
Ġthe e
Ġb ent
it er
Ġp ull
ot ed
the se
ĠC ollins
Ġno ise
Ġsp ring
Ġgl ad
Ġfall en
ĠCh Ã¢teau
A N
W ith
g ged
he art
Ġd inner
Ġse nd
ĠW ho
Ġgentle men
Y our
g ood
g ress
in i
Ġb attle
Ġp al
Ġl im
Ġan cient
ul f
ĠW ickham
Ġletter s
anc ing
Ġune as
b b
d ig
u ge
z y
en ces
Ġc at
as p
Ġe mer
Ġcon n
ĠL ady
Ġstud y
Ġsing ular
d ist
n al
s ur
Ġ ignor
er v
or ies
ac y
Ġst ay
Ġsa ve
li g
Ġv ain
Ġimp ort
appe ar
Ġmo ved
Ġmel ancholy
a is
p ers
Ġc ity
ll ing
Ġd ressed
Ġbe low
Ġsh ow
ert ucc
ĠR ome
Ġob sc
Ġhead s
Ġmon th
Ġcour t
Ġquick ly
Ġmurm ured
ertucc io
i ant
o c
Ġw retched
en ced
Ġc aused
Ġg ra
est y
Ġpro ceed
ud ed
ci ally
Ġeng aged
Mon te
c ame
Ġc ost
Ġhe s
Ġn umber
ow ards
Ġse at
Ġv ague
ĠN apoleon
ĠO F
Ġbr ain
Ġtr ouble
Ġwr itten
ey s
Ġpri est
Ġworth y
Ġspir it
Ġord ers
ondret te
G ood
m ust
s ued
w ind
Ġb right
Ġha bit
Ġg rief
Ġst orm
Ġse arch
ĠA b
Ġar rest
Ġtw elve
ather ine
Ġwall s
Ġchar ming
Ġfa ult
i ver
Ġcon vent
Ġv ict
ol og
ĠF ernand
be red
Ġmoment s
Ã¨ re
Ġjust ice
it ary
Ġre ach
ill y
Ġpr inci
Ġgi ving
Ġste am
Ġfore st
i ety
m ade
p ond
r act
in ated
Ġw ide
re me
Ġs orrow
Ġf ish
Ġst ro
ant ic
Ġfl owers
Ġpart y
Ġcar ry
Ġmis ery
Ġhold ing
Ġevid ently
o ved
ou p
on ed
Ġp isto
Ġin n
Ġth irty
Ġas leep
ac le
ĠM ar
if f
Ġv ill
Ġv ol
Ġv oy
Ġli berty
Ġgr ow
Ġspe ed
Ġbit ter
Ġcontr ary
R en
w r
Ġs now
Ġb read
Ġg rew
Ġsh ock
ĠF l
ne ver
Ġsm iled
rac ted
ĠCha r
ĠPro fessor
Ġemp lo
Ġgover n
S aint
Ġb ow
Ġf al
Ġin no
Ġg ate
ac c
ul ty
ĠW h
ĠP hileas
Ġgr at
Ġser ved
Ġcomm on
Ġte nder
Ġhor ror
Ġwal king
Ġdet erm
ĠPe quod
! âĢĻ
w ord
Ġs ense
ne w
Ġpo inted
Ġen joy
Ġbeaut y
Ġmove ment
Ġkne es
ĠJon athan
a ult
f oll
p ort
Ġa ud
Ġb owed
Ġc ru
Ġl angu
ĠL ydia
cha nt
az z
Ġstart ed
Ġenc oun
Ġprodu ced
thr ough
e e
Ġ er
Ġo d
am ent
ct ions
pe cially
th ur
ĠF ather
reat ed
Ġout side
ark er
Ġbet r
Ġlight ed
Ġgir ls
Ġinter rupt
Ġboat s
Th Ã©nardier
Ġbes ides
Ġlad ies
s uch
Ġin form
te nded
ĠC avalcanti
ĠE very
ress ion
ign ed
Ġaccord ing
Ġphil osop
S ir
in o
Ġb ound
Ġb are
Ġf old
Ġp ict
ch ild
Ġsu sp
ĠF antine
ran g
are r
Ġdis co
Ġhor rible
Ġmo on
Ġdesce nded
W here
c ause
f riend
g ive
ou le
Ġm ir
ri ll
Ġwe ak
Ġmar ried
Ġpol it
bour g
Ġopp osite
Ġoccup ied
Ġsole mn
A v
D anglars
in c
Ġc art
ar ious
Ġyou th
ac qu
Ġsee k
Ġpass age
Ġatt ack
Ġadd ress
ĠK ing
Ġpap ers
Ġpri v
Ġrend ered
O R
a ld
m oment
n on
r ist
in ite
Ġm ort
Ġf ashion
st e
Ġre ceive
Ġas ide
ul ous
Ġcon cl
ĠF rom
ak ed
ci es
Ġim mense
Ġbl ow
iz ing
Ġtal king
Ġyes terday
Ġfa ith
Ġwit ness
B y
s ay
is her
Ġf ight
at or
ter ing
to gether
Ġknow ing
ĠO z
Ġget ting
Ġhor iz
Ġmem ory
Ġciv il
f all
f ive
h old
i osity
Ġ 5
Ġ id
ic s
red it
ul s
Ġk iss
el t
Ġsome what
Ġfore head
Ġstru gg
Ġdisc overed
sha ll
N ever
n est
Ġw a
is es
Ġh id
Ġy ield
ard in
ise ly
oub led
Ġmin ute
Ġevent s
Ġsatis fied
Ġw ishes
Ġc ell
Ġto mb
Ġd are
as ant
Ġe t
Ġsa ke
ĠC ol
Ġv ent
ĠP er
Ġro b
Ġsur r
Ġarri val
Ġinf l
Ġbre ast
Ġmention ed
Ġlearn ed
ĠCour feyrac
A re
E N
R e
m ight
m other
t w
Ġs itting
Ġo be
se en
Ġcon sequ
Ġli e
Ġany one
ari a
Ġres ult
ex p
Ġmar ry
Ġdist ur
ener al
Ġear ly
Ġdra wn
Ġinte llig
Ġtran qu
Ġrecogn ized
Ġrapid ly
Ġspo ken
Ġforgot ten
Ren aud
A fter
c or
f irst
i am
re r
Ġs ought
er ve
Ġh ot
Ġh ouses
Ġp ath
le nd
The se
Ġst op
Ġan t
ĠA li
Ġdo g
ĠS ome
ree able
per or
Ġoff er
Ġcur ious
Ġhon est
Ġsim ply
Ġdang er
Ġsitu ation
p se
Ġf ly
Ġc oun
Ġd im
Ġhe alth
âĢĶ âĢĿ
Ġgo es
Ġsuff er
Ġwait ed
Ġext reme
ustom ed
Ġsuc ceeded
in st
in ced
it al
Ġd ress
Ġse wer
Ġr ushed
Ġpr on
co at
Ġexist ence
Ġconce aled
f le
g y
i ently
m ar
Ġl oud
ce an
ant age
Ġv irt
Ġal arm
Ġun happy
air case
hy s
ertain ly
Ġsil ver
Ã©n ie
ug Ã©nie
Ġnew s
Ġaw ait
ĠEng land
Ġcond em
Ġmotion less
Ġcoff in
Ġdeg ree
Ġempt y
T HE
m pl
Ġc as
ll y
Ġn ine
Ġe ld
ĠC atherine
ap t
pt ion
be ing
Ġoff ered
oud a
Ġfig ure
Val entine
Ġfal se
d ed
s y
Ġw on
Ġm ing
Ġf ro
Ġh ost
Ġp aused
Ġl ines
Ġnot iced
th ink
Ġadd ressed
oun ce
Ġbeh old
Ġri ver
II I
Ġcent ury
ĠX V
) ,
b ack
ar med
Ġg un
Ġth ro
qu is
our s
Ġr ising
Ġen orm
Ġsm iling
Ġcons cience
up id
Ġass ured
Ġfin ished
Ġpossess ed
Al bert
Ġviol ent
Ġdepart ure
oule v
D antÃ¨s
m ay
he ard
om me
Ġe ars
Ġg ay
ĠH arker
em ber
Ġknow ledge
Ġim m
Ġent ering
Ġinst inct
Ġass ist
Ġmon ster
Ġdra w
Ġint rodu
Ġmist aken
Ġprep ared
Ġexact ly
as te
ay d
Ġnot ice
Ġsa v
ie ces
Ġthr own
ari ly
Ġgreat er
Ġevid ent
Ġfright ful
Ġfav or
Ġshar p
I S
m uch
re p
Ġs li
ha ll
Ġf un
Ġd ouble
ir ing
Ġwe ek
Ġsa ved
ide red
Ġch urch
Ġread er
Ġwatch ing
pan ied
Ġpen et
ortun ity
J avert
h um
Ġs ch
it z
it ions
ur s
Ġfor ty
th ose
ĠC ome
ret ch
Ġins ur
Ġpur cha
Ġche er
Ġbro ad
Ġmid dle
Ġsurpris ed
ayd Ã©e
F rom
p hant
z z
Ġm iss
Ġf ield
Ġc ustom
Ġto ler
Ġd ying
Ġp h
ill s
Ġsh ook
Ġli ves
Ġqu itted
Ġtr ust
Ġwr ote
cei ving
Ġwant ed
Ġgaz e
Ġdec ided
Ġaccom pl
oh n
H ave
p et
Ġt ree
Ġm al
Ġd art
as ped
Ġis land
ro se
ĠB ertuccio
Ġfe ared
ĠD r
Ġpro per
Ġsp lend
ĠJ ondrette
ci al
mer ic
ex pected
com m
Ġconce al
Ġdiffic ult
somet hing
M Ã©
i um
p al
Ġb ore
Ġg ro
ro ad
ch ief
Ġr id
ĠP ont
Ġpre ced
Ġgreat est
Ġass ure
Ġfam il
Ġfif teen
Ġwat ched
Ġes pecially
Ġfre qu
Ġvoy age
Ġa unt
Ġa vo
re et
Ġbe at
Ġas ce
Ġde li
Ġde lic
ge ois
Ġam az
Ġpro of
Ġthan k
Ġpleas ed
do or
* *
A T
g in
i us
m or
Ġp ure
Ġp osition
Ġp ardon
Ġhe ight
Ġl an
ot te
qu est
Ġr ise
un k
ĠG u
ud den
Ġrep ort
Ġcr own
Ġdire cted
Ġinstant ly
rig ny
Ġshad ows
ĠAr thur
Ġoccur red
0 1
e en
f ound
i od
n s
o ot
u el
Ġd awn
as hed
ic ious
Ġbe ast
ĠM ay
us hing
Ġfe ver
Ġpl aces
Ġthr ust
Ġcomp any
Ġco ach
Ġchan ged
Ġpossess ion
Ġcompan ion
Ġcircumst ances
Ġneigh bor
Av rigny
MÃ© ran
p oss
Ġt ong
re ed
Ġb an
om b
se emed
Ġy ellow
Ġre vol
ri f
Ġsa fe
pe l
th ree
Ġsh ore
Ġam id
Ġper iod
Ġgreat ly
Ġmis erable
Ġdep ths
wor k
arse illes
Ġfan cy
c al
Ġt all
Ġre quired
ur ope
Ġshould ers
Ġdist inct
Ġform s
Ġkind ness
Ġquest ions
Ġresol ved
vel op
Ġem otion
_ .
n at
o on
Ġw aves
Ġm ast
Ġth in
Ġth under
ri but
ri fied
Ġst ation
pe red
ĠĠ Ġ
Ġsh owed
ĠW ill
Ġro pe
hen s
iv id
Ġarm y
Ġho le
Ġpur su
ib ility
Ġfall ing
Ġcare fully
Ġoffic er
Ġnam ed
Ġnam es
Ġaston ishment
Ġenorm ous
C ertainly
P assepartout
h us
it able
Ġp ier
Ġin hab
ĠS p
ĠS ir
Ġsh oes
Ġro of
Ġch im
Ġdi am
peri or
Ġexcell ent
Ġanx ious
Ġcab in
Ġproc ure
B ec
O U
e ch
o e
Ġm il
Ġp op
at he
Ġre ver
Ġas pect
Ġnot e
if t
ĠS perm
Ġle gs
ran ge
Ġpro ceeded
Ġsp read
Ġsou ls
Ġtal ked
Ġesc aped
Ġ18 1
Ġrun ning
Ġdiffic ulty
Ġpor ter
Ġenem y
I nd
l oo
u ished
y al
Ġt ru
Ġw ore
Ġs or
Ġm iles
Ġf ate
Ġc redit
st ill
Ġst aircase
ĠB r
Ġpro ject
Ġprom ised
Ġdro pped
Ġatte nd
whe l
Ġhide ous
Ġming led
Bec ause
f our
p ri
t ure
is on
Ġp ressed
ess ion
Ġyour s
Ġwhen ce
ĠL ong
Ġun f
ĠJ ust
pl es
ord inary
Ġcons cious
Ġsuff ered
Ġsail or
ĠCha pter
ific ent
Ġspir its
oulev ard
A r
a res
u x
Ġw ol
Ġb en
Ġm our
Ġc ou
Ġd om
at ures
Ġre ve
Ġre lie
ac ious
ĠC l
ant ed
ĠT in
Ġad vent
Ġent rance
iz zy
Ġsm oke
aint ance
Ġind if
Ġequ al
g i
Ġw ed
Ġs ick
ha lf
is c
Ġb le
Ġb rave
Ġm ot
Ġf ier
st ep
Ġg ar
et te
ĠM ag
ant ucket
Ġam ount
Ġour selves
sh op
Ġhands ome
Ġear nest
Ġsupp er
Ġadv antage
Ġlist en
Ġmeet ing
Ġbu ild
Ġbaron ess
e ff
v ation
is ion
ow ard
ad am
ul ated
Ġex ha
Ġv arious
Ġsh ot
Ġim per
ord er
Ġass ass
Ġreg ret
Ġbelie ved
bl anc
ĠCh rist
ĠU n
Ġshud der
c ast
s es
Ġt akes
Ġm ater
Ġp i
us es
li es
ĠW here
Ġno se
Ġwor se
Ġpro gress
Ġun fortun
Ġsp ace
are st
Ġpr ide
Ġsc r
Ġdist ing
Ġsoci al
Ġlaugh ing
Ġfat al
Ġsqu are
Ġmill ions
look ing
Ġcondu ct
keep er
Mor rel
F ran
H I
g ar
s ub
y r
Ġa ction
Ġo rig
Ġf aint
Ġl od
am s
Ġr ain
ĠW itch
Ġne g
ĠN ever
Ġgr ass
Ġdoor s
Ġdist ant
Ġmis fortune
Ġcloud s
Ġnar row
Ġclot hes
udden ly
k er
l ast
m it
p in
s ince
Ġf ail
Ġh ig
Ġp hys
at tered
Ġha ll
st ru
ur ity
Ġu seless
ore over
ist en
Ġsp rang
ĠE ugÃ©nie
Ġdes erted
Ġpr oud
ater loo
Ġreg ular
ĠY our
Ġstra w
Ġsold ier
Ġwat ers
Ġbecom es
Ġsett led
c her
d own
Ġo cean
Ġhe ro
Ġbe ings
us ing
ĠB esides
Ġle aves
ĠW as
Ġkn ock
Ġab and
ĠE urope
ĠJ ohn
ĠN ew
fe el
Ġcomp re
vers ed
Ġconf idence
Ġext ra
Ġmist ake
Ġtou ch
Ġwonder ful
Not hing
Ġjud ge
Ġapart ment
Ġlangu age
Ġdiam ond
c as
Ġt ail
Ġs in
Ġf it
Ġha m
id able
ri ved
il ar
ĠA ouda
Ġwho lly
ge on
Ġr ing
um ent
Ġdes ign
Ġra ce
omet imes
Ġatt ent
Ġcor pse
Ġopp ortunity
vi athan
cons cious
ĠSe ward
Ġanx iety
E very
G o
b ook
g hed
o or
p ast
r ated
he l
Ġw ounded
Ġw inter
Ġb our
Ġm onsieur
Ġf et
Ġp all
âĢľ _
im ents
Ġon es
Ġre nder
ad ually
et to
un ch
Ġun less
ĠN or
Ġsm o
Ġacc ustomed
Ġbeg un
you ng
Ġlook s
Ġadv ance
Ġcur iosity
amp a
Ġglo om
Ġrecogn ize
Ġconte mpl
Ġsuffic ient
Ġhoriz on
Ġsor ry
0 2
i en
i able
n ce
w hale
Ġt im
as ing
ent ered
ĠM other
Ġse as
il st
ĠA meric
ra ph
est s
Ġcont ained
iv al
.âĢĻ âĢĿ
Ġcross ed
Ġaccom panied
Ġgall eys
ĠBar on
Ġimag ine
Ġdemand ed
Ġtremb ling
Ġabsolute ly
Ġinfl u
Ġt ask
Ġs ous
on ap
Ġf isher
Ġc atch
es e
Ġd ust
Ġh unt
Ġsu perior
Ġli es
ĠP et
ĠG ree
Ġthan ks
Ġbr id
Ġapp arent
Ġposs ibly
Ġche st
Ġdoubt less
Ġignor ant
m is
m ind
r ain
Ġ Yes
Ġs ides
Ġo il
Ġb ull
Ġc ott
Ġp et
Ġl ying
im ate
Ġst ar
Ġst upid
Ġpro ve
Ġpro ved
Ġcount ess
ex t
Ġins pect
Ġserv ants
ey es
Ġmean ing
Ġsister s
Ġreal ity
Ġwha ling
Ġremem bered
Ġdirect ly
cont in
Ġharpo one
eu f
O f
a way
c our
k ind
nd s
Ġb old
Ġc lo
Ġre volution
ĠT e
Ġkn ife
Ġqu e
Ġfl ag
Ġlove ly
po ch
vid ence
Ġbro ke
Ġinqu ir
Ġarran ged
Ġsle pt
d el
d ep
g ment
t ake
t owards
Ġb ra
on ce
Ġh ither
Ġha ng
ac ity
Ġmy st
to p
ak er
Ġun cle
ful ness
Ġpers u
Ġwr iting
Ġinte nded
Ġfort un
Ġgener ally
ĠY et
Ġang ry
Ġbank er
Ġcomplete ly
Ġcand le
Ġdeterm ined
E x
G od
V ery
u ce
Ġ 4
Ġa live
Ġo per
Ġe tern
Ġre lig
am ed
am es
ĠA re
ĠH ad
ĠH aydÃ©e
Ġv o
Ġsp erm
ĠN antucket
su ff
Ġhast e
ĠLe blanc
Ġhop es
Ġest ab
bet ween
Ġthro at
c ond
g an
p ol
r al
u le
Ġb orn
Ġp aces
ic ation
Ġe poch
Ġg od
Ġwe ep
ous in
Ġshould er
Ġrem ains
Ġob st
Ġaff ord
Ġaw are
Ġsail ors
Ġce ased
Ġsy mp
Ġacqu ainted
Ġdel ay
Ġtravell er
Ġbran ches
b ur
w ed
or ney
Ġp it
Ġl amp
st airs
Ġg race
Ġwe ight
ag ues
Ġro lled
of t
ove l
Ġover whel
oll ow
Ġpre fer
Ġoff ice
aw s
Ġsupp osed
Ġfam ous
Ġsim ilar
ask et
Ġcreat ures
Ġwa ist
Ġlan tern
s l
u il
Ã ª
or ous
Ġhe aring
ic le
Ġbe aring
st it
Ġg en
Ġst at
Ġst ir
ĠM arseilles
Ġwe ather
Ġan gel
ol t
Ġj ew
ab ility
Ġrep l
Ġret ired
cha ir
Ġtell ing
Ġinter val
ug ust
Ġfin ally
Ġele phant
Ġdeep ly
Ġmag ist
Ġexam ined
Ġprot ect
Ġbour geois
. âĢĶ
l ife
o li
Ġw ound
Ġw ond
om bre
Ġg est
ation al
Ġr ang
ab les
ne cess
Ġcl ass
man y
Ġrem oved
Ġcomp osed
con f
Ġlight ning
Ġappe ars
Ġheart s
Ġput ting
Ġgu ide
Ġread ing
Ġinf inite
Ġang uish
Ġbook s
Ġmaj or
Ġshout ed
Ġfing ers
Ġbird s
ĠFl ask
Ġinterrupt ed
Fran z
T H
l otte
r and
Ġ ice
it ure
Ġf ood
Ġf ond
Ġd ull
Ġd ared
Ġe ase
ent h
Ġwh ilst
ri er
il ty
if y
ĠB our
os ure
ĠF aria
um ult
ran k
Ġsp ark
of ty
Ġother wise
ĠIt aly
Ġdis pl
Ġra ge
Ġpr act
Ġmar ked
esc rib
Ġill um
Ġabs or
Ġbur ied
gg ing
Ġcent re
fact ion
Ġcomb at
Ġinform ation
Ġvirt ue
; âĢĶ
L E
s k
w al
ha ving
Ġb od
on or
Ġf ra
or ough
Ġh un
ve ll
Ġg ently
ent er
ep te
Ġsp ent
Ġrep res
for d
Ġfl ight
aught ers
stand ing
Ġgi ves
Ġste pped
gr ound
app o
Ġhast ily
ĠNot hing
Ġimport ant
ardin er
Ġsurr ounded
Ġsav age
a ved
i vers
Ġt aste
Ġa id
Ġa rose
ed s
ro is
Ġst airs
pp ino
Ġr ad
ĠF e
ĠP hil
ĠD id
ig ne
ven ge
ag ger
Ġag ony
Ġlike ly
ĠIt al
mer cy
,âĢĶ âĢľ
Ġsub l
pass ed
Ġsold iers
Ġru in
Ġere ct
Ġquiet ly
ĠAb bÃ©
Ġcondem ned
Ġeld er
c ur
r ass
Ġs ink
Ġb rig
Ġc a
ot o
Ġg ained
Ġst ern
Ġme re
am b
te ll
ĠC an
ĠW est
Ġpl un
ĠG ood
cl es
Ġimp at
Ġarri ve
Ġconv inced
Ġresol ution
Ġpisto l
Ġpron ounced
Ġcompre he
epte mber
F ather
O O
i ance
z en
Ġt y
Ġm ate
Ġp ick
Ġp ause
Ġp ounds
al most
ver ing
ol es
Ġpro vid
ab euf
Ġun able
Ġpass ion
Ġthr ow
Ġimp ro
Ġhapp en
Ġdist r
Ġroom s
Ġlist ening
Ġdread ful
Ġmagn ificent
Ġvict im
Ġhid den
tw enty
D id
P aris
W hile
i ke
p or
s ix
Ġa v
Ġb urning
es h
ir l
Ġst ock
ĠC on
ast ic
os es
os pit
Ġj e
Ġro yal
Ġent reat
Ġatt ached
ĠTh us
com p
Ġcomm itted
Ġexp ressed
Ġins p
bo at
Ġeng age
Ġmount ed
Ġbu ilt
ĠInd ian
Ġprev ious
Ġfle w
Ġincre ased
Ġinno cent
ĠCol onel
mor ning
c ol
h undred
i as
j ud
l ar
m ount
Ġd ue
Ġp ave
Ġp air
Ġp ieces
ver se
ĠM adam
Ġfe atures
ĠW aterloo
Ġal armed
lo ved
Ġpo ison
ru ction
Ġdes ired
Ġconf ess
alm ing
Ġabs ence
How ever
Ġgaz ing
them selves
Ġwood en
Al as
Ġconsider able
Ġrequ ire
Ġoffic ers
Ġbelong ed
Ġaston ished
Ġexperi enced
Ġuneas y
Ġben ch
Ġwed ding
F au
J ust
W ill
g ers
l ted
l ished
p iece
s on
re ction
er ies
Ġc lock
Ġd ign
Ġd azz
Ġl ord
Ġl uck
Ġth reat
ad v
ir able
Ġnot ary
ac les
Ġst ars
te nd
Ġcon ve
Ġman ners
Ġv ig
ast ed
um ents
Ġen er
man uel
Ġevery where
int s
Ġcons idered
Ġcap able
arn asse
Ġsleep ing
Ġmatter s
Ġtou ching
app ro
umb led
Ġrequ est
every thing
Ġconcer ning
Ġbecom ing
Ġvill age
Ġtong ue
Ind eed
T han
c is
d om
g ain
l aw
an n
Ġl in
Ġst uff
Ġst ones
th ousand
Ġex tended
Ġsh op
Ġcom r
ĠG ardiner
Ġsp out
lo pe
Ġres ist
iz ation
Ġaff airs
aver n
fer re
Ġexc han
ĠHow ever
Ġhat red
Ġdream s
Ġfat ig
Ġund ert
Ġsac red
Ġlean ing
A S
P er
n ame
p arnasse
t al
w ood
y l
Ġw arn
en ge
Ġd aughters
Ġl oss
Ġl ofty
Ġg end
ĠThe ir
ra b
ra p
our ite
Ġor dered
ert y
od e
be ferre
per ate
for th
Ġcont ent
Ġco ast
Ġsuff ering
ho le
su pp
Ġsum mer
bour n
Ġmount ains
Ġrefle ction
Ġsplend id
Ġchim ney
igne ur
L e
M ademoiselle
m et
s at
w ild
Ġ 3
Ġw retch
Ġs igh
Ġb rill
Ġf er
Ġf ru
ar ies
Ġin j
Ġl est
Ġg le
Ġth read
ur ally
ac hes
um n
Ġam b
Ġmay or
Ġob tain
Ġpart s
Ġcar rying
Ġhar m
com ple
Ġte ar
Ġadm it
ĠOn ly
Ġappro ach
Ġexist ed
Ġang le
Ġrefle cted
Ġdiv ine
bre ak
Ġdecl ared
Ġsteam er
ĠWh ite
Ġgrat itude
Ġpriv ate
h ind
l ord
m ag
o let
r ous
s ing
w oman
Ġw ings
Ġo h
or ing
ar ked
Ġhe nce
ve t
ĠA m
ĠS eptember
os it
ck ed
ck now
Ġun expected
Ġret reat
Ġsm ell
ick s
Ġfl esh
Ġter ms
Ġcr im
Ġref use
Ġfull y
Ġcur tain
Ġche eks
Ġdro p
Ãī pin
Ġacqu aintance
Ġris k
inte rest
Ġeager ly
Ġdestro y
Ġsusp ic
Ġinflu ence
D e
W h
l eness
m ble
w ent
Ġb ill
Ġm ult
Ġc up
Ġc ousin
an ation
Ġp il
Ġn in
se igneur
Ġse vere
ĠS uch
ĠS pan
Ġex ceed
Ġsh ips
un ning
Ġwor king
Ġab rupt
itt y
ĠJ u
ud es
Ġgr adually
Ġrep ro
con te
Ġapp re
Ġsort s
Ġmin ister
Ġform idable
Ġel b
bo x
Ġlau ghed
Ġexam ple
Ġheaven s
Ġjo ined
Ġdang erous
pres ent
Ġemplo yed
Ġsch ool
rif ice
ĠItal ian
Ãīpin ay
m aster
r ors
u zz
v re
y ss
Ġt it
Ġa cknow
Ġb ree
Ġc ook
Ġc ord
Ġd well
Ġh y
Ġp ack
ir th
Ġst y
ul ie
est ic
ĠT oto
ap s
ate ful
Ġpl ayed
ĠG reat
op en
wh ite
sh ot
ince y
com pl
Ġdif ference
Ġfact s
Ġext rem
Ġchar ge
Ġtor n
Ġprec isely
Ġhop ed
Ġbran ch
Ġlif ted
Ġfing er
Ġmut tered
apt ist
Ġavo id
! _
C h
m ake
o by
p ur
Ġw icked
or ation
Ġd ry
Ġp ra
Ġp icked
le y
Ġha te
ri ve
ri ous
ĠM abeuf
am ing
Ġsu spe
ĠB onap
Ġex cess
Ġle vel
Ġj ail
ĠJ une
Ġcl im
ĠO f
per haps
Ġevery one
Ġra re
Ġspe ech
sh ire
ĠGod alming
Ġsur face
Ġpur sued
Ġadv ice
Ġfear ful
Ġcond ition
Ġpower ful
Ġdelight ed
Ġmill ion
rant aire
Ġsepar ated
Ġwhis pered
Ġmus ic
ivid ual
Ġunfortun ate
Ġmagist rate
c ence
d est
l ers
l ooked
s il
s ame
t ook
t urned
Ġt umult
Ġs ombre
Ġc ries
Ġd il
Ġd un
Ġin formed
Ġhe ll
le br
om en
Ġe c
Ġde b
Ġde ceived
ul ate
ul ted
res pond
Ġwhe el
Ġr ust
ig hed
ĠV ampa
Ġwor n
Ġsp r
Ġcan non
Ġhand ed
Ġdis g
wh y
Ġend ed
cha mber
Ġcor rid
Ġind escrib
Ġsupp ort
Ġmur der
Ġappro aching
go ing
ĠEnglish man
Ġpain ful
Ġann ounced
Ġprec aut
Ġshud dered
Ġexec ution
Ġrecoll ect
Ġprinci pal
Ġstrugg le
Ġtoler ably
d et
p ap
Ġ 6
Ġw ake
Ġs cience
Ġd am
Ġha lted
Ġg ain
Ġg ame
al ways
et her
il i
th y
ĠH ave
our ce
ol ation
ĠT ur
ĠD on
ck s
Ġag ent
Ġag reeable
Ġtw ice
Ġgr own
Ġnever theless
Ġcap t
Ġmo ving
Ġswe ar
wor ld
Ãī pon
Ġconcer ned
Val jean
Ġlab or
Ġcal cul
Ġpict ure
ĠPont mercy
Ãīpon ine
E njolras
N D
c irc
p ut
s ue
u et
Ġw and
re ason
Ġm as
Ġto morrow
an other
om in
ad ing
ĠM an
ĠC ity
ĠT wo
ran ean
Ġag reed
Ġday light
Ġbr ains
iz es
Ġacc ident
Ġcomp ass
Ġrec omme
Ġgu ilty
Ġsix ty
Ġprop erty
Ġdest iny
ye ars
Ġfast ened
Ġmeant ime
Ġresemb led
Ġintellig ence
Ġprocure ur
Ġextra ordinary
Ġinspect or
Ġlin en
C ha
C aderousse
P ro
b u
c ut
y es
he st
Ġs ong
Ġd oub
Ġh ollow
Ġl og
Ġth ither
ur ies
ĠP al
Ġro ll
ud ent
ci ed
be lie
ĠR en
pl ic
Ġpe asant
ĠFran cis
Ġturn s
no on
Ġdet ect
ĠPe ppino
Ġuse ful
Ġpull ed
Ġfrequ ently
Ġtru ly
Ġsubl ime
d on
d if
m ist
p iration
r ation
t ran
w all
Ġt ap
Ġt reat
re ct
it ate
on i
Ġf ill
Ġin vent
Ġin vol
ow der
Ġth orough
ro g
Ġst retched
Ġwe alth
Ġwe eks
Ġsa f
Ġan ger
ous ers
Ġle agues
Ġar med
ab s
Ġqu it
Ġgr ay
Ġch oose
Ġra il
com ing
Ġhon our
my self
Ġmist ress
Ġsum mon
Ġhast ened
Ġtra versed
Ġcirc le
Ġfright ened
ĠJon ah
again st
Ġaccept ed
Ġcompan ions
Ġtremb led
foll owed
ĠLong bourn
Ġque er
I L
Q u
b ene
p es
v iew
y et
y ard
Ġt rying
ha l
Ġb ul
Ġb ag
Ġm ain
ing ton
ut ions
Ġwh it
al ous
Ġu pper
Ġst ared
Ġse vent
pe ople
ĠC or
ĠC ors
Ġne arer
au x
um ph
ĠD ick
Ġmore over
lo ve
lo ire
Ġgr owing
Ġper il
ild ad
Ġfl ame
Ġspe cial
Ġpres ident
Ġind ul
Ġcap ital
Ġref used
Ġtre asure
Ġpleas ant
Ġsail s
Ġele g
Ġrel ated
Ġstri ke
Ġdesce nd
IN G
Ġperm itted
Ġobsc ure
Ġgovern ment
Ġet c
Ġpreced ing
step s
Ġabsor bed
S ome
b ro
e ither
l ine
r ue
v res
Ġb asket
Ġf aces
ing ing
as hing
as ons
as hes
ic ip
st one
Ġg am
Ġg ard
ad d
Ġse ll
Ġse ason
all ey
Ġv ari
Ġv ault
Ġal oud
ig i
ĠL izzy
Ġab yss
Ġpro cess
Ġsee king
ean while
Ġbl ess
Ġrem ind
de ath
Ġent hus
Ġra ising
Ġrec all
Ġsl ang
Ġmind s
Ġsw im
Ġgu ess
ĠLu cas
Ġmount ain
Ġsol itary
Ġjo in
Ġcircumst ance
ĠEm manuel
appear ance
Ġod d
Ġdisco ver
Ġmort al
Never theless
Ġamaz ement
Ġplun ged
O M
k y
o ber
r ound
s ar
s ail
Ġ ing
Ġw ise
Ġb al
Ġm ess
Ġm ild
Ġp ushed
at ors
at ched
Ġre ar
ri fic
am me
ct ober
if orm
ĠS ometimes
Ġsh ru
ĠHe aven
ap sed
Ġar ch
be cause
Ġdis m
Ġper ceive
oss uet
Ġmight y
con v
Ġcall ing
Ġatt itude
Ġrec overed
ict ion
Ġmar ch
Ġfeel s
Ġ1 7
Ġpoint s
Ġste ward
Ġcle ver
under stand
Ġexc ited
Ġeight y
spe ak
Ġed uc
Ġplain ly
Ġparticular ly
Ġlean ed
ĠQu incey
tre es
occ up
Ġauthor ity
; âĢĿ
G avroche
T ake
k ins
p ower
t le
Ġ 7
re es
Ġs ank
Ġb oulevard
Ġb irth
Ġp ill
ĠI I
st em
al ities
Ġse am
pe lled
ul ars
ust er
Ġfe e
Ġr ough
Ġwhen ever
ep t
me il
Ġgr asp
Ġgr oup
Ġdis appo
Ġfl ung
Ġsw all
Ġamong st
bl ack
Ġve h
fer meil
Ġrepe at
Ġprob able
Ġslight est
Ġsitu ated
ĠCom beferre
Ġconn ected
pers on
ker chief
L ook
d ire
h our
i est
p ul
s leep
Ã ´
Ã ł
Ġ &
Ġo ars
ha st
Ġm ou
it udes
or able
Ġp ress
Ġp hant
Ġl ack
ĠI N
Ġbe ha
id s
Ġas semb
ac he
Ġwe l
Ġwe ar
th ings
li x
Ġv enge
Ġun conscious
ĠE ast
ci p
de rer
less ly
eth od
Ġinst ance
Ġass umed
Ġlo ver
by e
Ġind ividual
Ġconf used
Ġnat urally
Ġint ention
Ġsk in
Ġact ually
eng ers
Ġmid night
Ġele ven
Ġexc use
Ġnecess ity
Ġremain ing
happ iness
Ġlead ing
Ġexpl ain
Ġdef end
Ġconvict ion
Ġfold ed
ĠXV III
Ġcoach man
Ġadvent ure
necess ary
Fau chelevent
ĠJu ly
ether field
R E
w ater
ha ra
en es
Ġto ss
Ġto day
as y
Ġh uge
Ġhe at
at ory
st ra
Ġat e
Ġshe et
ĠW hile
Ġli ked
Ġam iable
Ġwor ked
Ġpro dig
ĠG er
Ġsha me
ĠO ctober
Ġevery body
ty ard
Ġadd ition
Ġho ly
Ġaff ect
Ġpur se
Ġsou th
Ġext ent
imp se
Ġstri king
Mr s
Ġexpl ained
Ġdri ve
ĠBar rois
Ġed ge
Ġformer ly
Ġmaj esty
Ġdestro yed
Ġdistur b
velop ed
ĠWill iam
Ġmour n
ĠMag loire
Ġexha usted
Ġmyst ery
A b
C risto
d aughter
g ent
m ast
n or
t able
v oice
Ġ ur
Ġthe at
Ġf led
Ġc em
Ġh ospit
Ġn erv
ic ular
ly s
ĠM oby
il ight
Ġsu pre
Ġdo ll
ĠG o
Ġsome where
Ġsha pe
Ã© es
ris e
ĠR os
ĠR oman
Ġtr oubled
ened etto
mb ers
Ġfl ash
Ġacc ent
Ġcall s
ens ive
com mon
cept ion
No irtier
Ġsw ell
Ġsw ift
Ġinter ior
Ġide al
Ġtran sp
Th us
who le
Ġprop ort
hand s
ĠPro vidence
Ġtem pt
Ġfan cied
Ġfurn ished
Ġanim al
Ġinhab it
Ġrever ie
Ġoverwhel med
Ġgest ure
Ġprovid ed
g entle
g arden
l im
p any
s us
s aw
t oo
Ġa x
Ġb or
Ġm at
Ġf oo
Ġf ailed
Ġc hat
Ġc ool
Ġc oward
an cy
Ġbe loved
st ones
Ġwh ist
her n
Ġme chan
Ġde pend
res a
ĠS h
Ġsh r
ast r
um es
ck ets
Ġsp are
ĠJ ulie
Ġcl er
Ġdes ert
Ġway s
Ġgl ory
Ġpres erved
Ġsub st
br ary
Ġsign al
Ġnor th
Ġtra ce
rem ained
Ġ( _
Ġport ion
Ġpat ient
Ġarran ge
Ġphilosop hy
Ġdart ed
Ġbuild ing
Ġmater ial
Ġscr ut
ĠGree k
Ġvo ices
Ġpave ment
Ġcorrid or
Ġsaf ety
C ount
E dmond
g eneral
m as
s ol
u pe
Ġb ows
Ġf ulf
st ri
ut ter
ad ise
qu et
Ġal together
el ess
Ġar g
Ġgr im
ne ar
Ġpre cious
wh om
Ġown er
Ġcons ent
Ġwr ink
Ġwr ath
Ġsec ure
Ġins ide
po int
Ġdra gged
Ġwant s
gr and
Ġadm iration
Ġbest owed
Ġprison ers
ĠPe leg
Ġemb ar
Ġsol id
Ġcra ft
ĠMont parnasse
Ġval ue
Ġfamil iar
Ġtim id
Ġsymp ath
Ġsty le
d ark
i ally
s ort
in ate
Ġw id
ed ing
Ġc op
at al
le ft
Ġre jo
Ġre asons
ay ing
ter rible
qu arter
ĠB ab
our ing
Ġv ic
os en
ap ing
Ġsha re
Ġdis char
Ġch oice
ark s
Ġra ise
so ci
ĠMor ris
Ġco ver
Ġmar ble
Ġhar sh
Ġfind ing
Ġref uge
Ġnat ive
Ġsign ed
ster n
.. .
âĢĶâĢĶ âĢĶâĢĶ
Ġfin al
Ġmur derer
umb ling
Ġbox es
Ġdepart ed
vere nd
Ġharpo on
ĠEm peror
word s
Ġkiss ed
Ġhot el
Ġcas es
Ġembar rass
P hara
f in
f ell
t ained
w ers
he t
Ġm aid
en et
Ġc her
Ġc ard
Ġn um
Ġl aughter
Ġe p
am ation
ĠB ildad
Ġex erc
ast rop
ĠP res
ĠP ip
ap an
ag on
Ġpro spect
Ġqu ar
ress es
Ġrep ose
Ġrem arked
iv ory
Ġter rified
Ġcr ack
Ġvis ited
Ġconf l
amp ed
gr at
Ġunderstand ing
Ġcreat ed
str ous
Ġhur t
Ġmer chant
Ġviol ence
Ġsing ing
Ġrefle ct
Ġord inary
Ġutter ly
Ġbetr ayed
Ġconsequ ence
HI CH
contin ued
ĠSpan ish
Ġjail er
ĠCors ic
Ġvenge ance
Phara on
A L
L isten
P hileas
b ad
d rew
h ib
m od
o v
p us
in ity
it es
Ġc ir
an o
Ġd ig
Ġbe ard
st re
her self
Ġse es
and y
ĠA d
ul se
res ist
Ġfe ars
Ġr um
Ġno on
Ġar d
Ġcha in
Ġfl at
row s
Ġgl impse
cept ible
Ġsoon er
Ġaff ected
po or
ale t
head s
Ġreturn ing
Ġcle an
Ġclose ly
Ġexcept ion
Ġhur ried
Ġbad ly
Ġmer cy
Ġplay ing
fortun es
Ġfurn iture
key s
Ġarrest ed
Ġencoun tered
hum an
quest ion
Ġfet ch
OO K
Ġtit le
Ġbree ze
Ġindescrib able
astr ini
H er
T wo
b id
b el
c ap
d ward
e le
g one
re mon
Ġb ones
or k
Ġin ex
at hed
ĠI II
Ġas king
ĠM e
ĠB omb
ĠB aptist
Ġr uff
art her
Ġli ber
Ġpro v
Ġun ivers
ĠE ven
Ã© t
Ġcl oth
Ġtr ousers
ign ation
cl osed
Ġres pond
Ġcha se
int ment
oy al
Ġrest ed
ug g
Ġabs ent
Ġtri al
Ġdro ve
Ġdro ps
Ġland lord
Ġhur ry
Ġpain ted
Ġexpl anation
can not
Ġimag ination
even ing
Ġsuffic iently
Ġgovern or
Ġdistur bed
Ġasce nded
Ġbrid ge
Per haps
sat is
Ġcem et
C an
D on
I T
a ily
a pped
c alled
o pp
p rom
r ather
v an
w ar
Ġ Z
Ġ Ãīponine
Ġt ig
ou g
Ġm atch
Ġp an
ic les
ut ation
Ġre venge
Ġwe ap
ain te
Ġme asure
Ġshe l
um ped
ig antic
Ġsha de
ud ing
Ġover come
ĠR o
con ce
Ġrec alled
Ġser ve
Ġapp o
Ġpoint ing
Ġbelie f
Ġste ad
ser v
Ġfore ver
Ġbre aking
long er
Ġfr ame
Ġtri umph
Ġexist s
Ġcol or
Ġce lebr
Ġdisc uss
sm all
gl ass
Ġdev oted
ĠĠĠĠĠĠĠĠĠĠĠĠĠĠĠĠ ĠĠĠĠĠĠĠĠĠĠĠĠĠĠĠĠ
Ġrock s
Ġsuc ceed
Ġwhis per
Ġvan ished
Ġexperi ence
Ġuneas iness
ĠChar lotte
ĠPer haps
Ġobe yed
Ġassist ance
Ġcou ple
Ġpil ot
Ġsupre me
M ont
P r
S E
d oubt
f rancs
f elt
l est
u it
w ait
Ġt est
Ġt ired
Ġs entine
Ġb ase
Ġm ethod
Ġf ix
Ġf ool
Ġto ward
Ġd ining
ĠI V
ot ions
ir gin
ur red
Ġu g
ac her
Ġan ch
and s
ore s
ĠC han
Ġdo gs
ĠT O
Ġag itated
Ġun iform
op ing
ĠN etherfield
Ġgr asped
Ġbl ows
Ġper f
Ġfl u
Ġbo ots
com fort
Ġsign s
Ġadv ancing
Ġgener ous
Ġsure ly
vi our
oura ble
chan ce
car riage
somet imes
Ġemer ged
Ġobsc urity
nat ural
Ġwol f
Ġfier ce
Ġharpoone er
Ġnerv ous
B OOK
D r
I V
g all
Ġt ro
Ġt reated
Ġa im
is ible
Ġto il
an im
Ġp ace
Ġp owers
Ġhe ed
Ġha b
ad s
ur b
ke let
ĠH en
ĠS c
ĠS und
Ġv ener
Ġsh irt
ĠP ol
Ġtw ilight
Ġdid n
other s
Ġdis d
Ġdes perate
Ġpass engers
ps es
Ġob ed
iv ity
Ġapp lied
Ġset ting
ĠK itty
Ġkeep ing
Ġve x
Ġcast le
ĠSe e
Ġviol ently
ĠIs land
Ġtravell ers
Ġinqu ire
Ġregard ed
Ġpolit ical
Ġaccompl ished
Ġgro an
Ġbrill iant
Ġextrem ity
e ight
f am
f ind
i ac
p ool
t aken
Ã ®
he w
Ġb os
it or
it ating
Ġf are
Ġto re
ing ed
ic ate
ver ted
ur ance
ri ages
Ġst iff
ore ss
ul ation
ous ed
Ġman if
Ġv alet
Ġr ate
Ġr ub
Ġr ank
ĠW HICH
ol omy
ĠT ake
ak ened
op ened
ĠE x
me nd
Ġus ually
Ġtr ack
Ġspe cies
Ġarm chair
Ġwhale men
Ġcor respond
Ġind icated
Ġfour th
Ġcour tyard
Ġint ent
any thing
Ġobser ve
Ġbreat hing
Ġmad ness
Ġdri ven
Ġsatis faction
Ġconst it
Ġperm it
Ġprev iously
Ã¦ sar
Ġlock ed
ĠRe volution
Ġimport ance
Ġpict ures
Ġobe y
Ġtranqu il
Ġdistinct ly
Ġpursu it
athe red
ĠAmeric an
Ġinquir ies
Ġinterval s
vell ous
Ġsuspe nded
Ġdetect ive
olomy Ã¨s
C E
D uring
D orothy
E ng
P e
S uch
c oun
d s
f ig
g ic
g est
h ost
j on
m id
o k
o cious
s ign
t ri
u pt
re y
Ġo ath
or se
le cted
ot hed
id ering
al t
al ing
Ġwith dra
ĠM ond
Ġsa nd
and er
ight ed
ĠC o
ĠS ignor
ĠB us
Ġli brary
ak s
ĠP astrini
Ġj aw
Ġsp l
ĠE ach
de ad
Ġafter noon
Ġob tained
Ġyoung er
Ġpr ow
Ġcar p
mer ald
Ġcontin ue
Ġste el
Ġdet ails
ĠLu igi
Ġmean while
Ġstrange ly
Ġhigh ly
Ġ18 2
Ġ18 3
count ry
Ġcalm ly
Ġsy stem
ĠX X
gu ard
Ġtravell ing
Ġfig ures
rec ogn
Ġer ror
Ġindif ference
Ġaband oned
Ġdign ity
Ġfatig ue
Ġfru it
Ġdun geon
b ing
b ly
i et
i ary
l ance
Ġa ug
Ġo we
er al
Ġb rief
Ġf il
ll en
Ġd ish
Ġh ovel
Ġl at
st range
ut en
ent al
Ġre ck
ad m
ac ific
ac count
ĠM oreover
Ġsu it
ĠW icked
em bourg
ĠT ell
ag reeable
ĠG en
Ġgr ating
Ġpre y
man ner
Ġcont ented
Ġgl anced
so on
Ġatt ract
Ġsl ave
ens ity
Ġfoll y
Ġcor rect
Ġsil k
ĠSt ill
Ġdra g
ten se
ĠParis ian
Ġadm ire
Ġstand s
Ġconv uls
ler val
arse e
Ġcontr act
Ġequ ally
Ġpartic ulars
Ġbring ing
ĠMont fermeil
Ġperm ission
Ġsac rifice
Ġneigh bour
Ġcost ume
Ġemplo y
Ġaud ible
Ġdisco very
Ġfaith ful
Re ally
Ġtranqu ill
Ġfly ing
ĠNever theless
Ġhig her
Ġapparent ly
Ġhither to
Ġhang ing
Ġeduc ation
pul ch
Ġcemet ery
Ġug ly
L u
c re
c if
e or
f it
m at
n et
p ost
p osed
Ġ ivory
Ġt end
in qu
Ġb ol
it c
it ive
it iz
en ger
Ġf arther
as ures
Ġp ot
Ġin tense
Ġha lt
ld om
Ġre aching
Ġst upe
Ġwe pt
Ġde arest
ra pped
us ual
li er
Ġli vid
Ġam use
Ġgr ateful
ment ed
Ġpo le
Ġen v
Ġbl essed
Ġcl aim
ĠO r
Ġper form
pl ain
Ġgood ness
Ġthink s
Ġimp ert
Ġrec ord
ex c
Ġdist ress
ĠTh ose
cer n
Ġvis ion
rac ed
ĠK ong
ĠCha mp
Ġneed s
Ġlive ly
Ġinv isible
Ġtor ch
how ever
Ġprodu ce
Ġgold en
Ġcoll ect
Ġsens es
whe ther
Ġplan ks
Ġincl ined
Ġconn ection
Ġpisto ls
lar ge
comple te
Ġec st
A ye
P ic
c reat
e enth
f a
s we
s aint
x ion
Ġw is
Ġb ay
Ġm ud
Ġh ill
ot to
Ġe v
Ġg rie
Ġg uns
ut ch
ro l
Ġwe ary
Ġan ge
âĢĶ âĢĺ
ĠS at
Ġr ay
Ġor n
ond s
Ġro lling
Ġad op
Ġhand kerchief
Ġch o
Ġch osen
ru jon
Ġpre par
Ġthought ful
Ġsc ream
Ġatt orney
Ġcr ushed
Ġread ily
ery ton
Ġsign ific
Ġperson al
Ġkind ly
Ġaw ake
Ġadm itted
Ġneed ed
Ġele v
Ġcross ing
Ġinterest ing
Ġaccom pany
Ġfree ly
Ġlaw y
har d
des p
Ġsens ation
Ġes te
Ġfre ed
St ill
olog y
Ġcivil ization
Ġinsur rection
ribut ed
Ġ181 5
Ġorig in
Ġsin ister
Ġcott age
cour se
ĠTe resa
Ġwaist coat
Ġhun ger
Ġje alous
Ġcrim inal
Ġabrupt ly
Ġproport ion
M ercÃ©dÃ¨s
d one
i qu
p her
v a
v aire
Å ĵ
Ġw ounds
re ne
Ġb id
it ement
Ġf ie
Ġc rying
or ious
Ġd ance
Ġp in
Ġp red
Ġin k
Ġhe ap
Ġy ard
Ġg own
Ġth irst
ly ing
Ġre le
Ġst age
if ying
ĠA ugust
Ġsu st
ĠH ong
ĠC al
ge ant
ĠB enedetto
Ġr as
Ġr ays
em s
ĠD uring
ĠL ook
own ed
Ġsome how
ĠJ ac
ĠJ apan
lo qu
Ġhand le
be aut
ĠO ur
Ġper formed
Ġcha pel
Ġra gs
ĠMon seigneur
con vers
Ġrec o
Ġte a
Ġstre am
Ġsil ently
Ġrest ored
day s
Ġac quired
lock ed
Ġcontin ually
Ġdead ly
arm es
Ġaw ful
Ġut most
Ġadm irable
pre ced
Ġve il
Ġhuman ity
Ġlow ered
Ġfur y
app ing
Ġrel ate
Ġsol itude
Ġkne e
Ġru le
Ġmod ern
leg raph
dig ger
wind ow
Ġconcl uded
gi ven
Ġassass in
Ġrepl aced
Ġillum inated
Ġcomprehe nd
Ġthorough ly
amme red
Ġscrut in
Ġrespond ed
M aximilian
U n
b a
c overed
e f
e qu
e ach
r ough
s po
Ã §
Ġ rom
Ġa ye
re qu
Ġd er
Ġd ine
Ġd ressing
as que
Ġp owder
le x
Ġg igantic
Ġre se
ĠM aire
Ġse pulch
am a
te go
te nding
ul a
Ġcon qu
ant ry
Ġex ting
Ġr ush
Ġno is
Ġpl ate
ĠE l
ĠR ight
pl aced
Ġret orted
Ġpr ince
Ġbeg ins
Ġmar vellous
ens ion
ans as
Ġlo ves
Ġstran gers
Ġsw ept
Ġhum ble
ser ved
let ter
ash tego
Ġel apsed
Ġprof ession
pris e
Ġinv ited
medi ate
Ġobject s
Ġlad der
ĠFau bourg
Ġtem per
Ġsoft ly
Ġremark able
Ġrecoll ection
Ġinno cence
Ġdelic ate
Ġindif ferent
Ġetern al
Ġgen ius
Ġjew ell
ĠBomb ay
ĠBus oni
cif ix
C om
F antine
I ON
b all
b oth
f ar
f if
f oot
g ents
i pped
l a
p est
s had
t urn
v ity
Ġs ize
ha les
ed y
Ġb as
Ġm ood
Ġm aint
Ġm ask
Ġc u
an te
Ġp aint
Ġn ail
Ġbe ars
al ong
ver ty
ur day
Ġso il
Ġsu gg
sel s
au nt
um ing
Ġj ack
Ġag ed
Ġag itation
Ġsha king
Ġinto x
ud ence
ci en
be hind
Ġpass es
de v
Ġres erved
ret urn
less ness
Ġacc ur
Ġatt acked
Ġinst r
ple asure
Ġsun set
Ġmis fortunes
Ġstr ict
Ã©nard iers
Ġinf am
Ġaw oke
over n
Ġve l
Ġatte nded
Ġcomple ted
Ġcut ting
Ġconsider ation
Ġem peror
aff old
Ãī lys
Ġsal on
Ġru ined
Ġconst antly
Ġboy s
Ġprevent ed
Ġdescri ption
Ġhes itation
Ġcoun ter
Ġextreme ly
Ġpurcha se
Ġfamil ies
Ġpall or
circ umst
Ġgam in
d y
f ire
m aking
w l
Ġ ess
in ces
Ġw et
it ical
le ct
Ġn ation
Ġn aked
Ġl oose
st o
im ag
Ġg ulf
Ġwh ither
ri el
Ġst ammered
Ġsu s
Ġcon ject
ĠS outh
ĠB ossuet
Ġex hib
ĠP oor
Ġwor st
Ġj umped
Ġpro ble
ĠE merald
Ġany body
ud ge
ne igh
Ġper ceiving
per fect
oll y
ath ieu
Ġres p
ĠTh ough
Ġmon strous
Ġreg iment
Ġir r
Ġcare ful
Ġsail ed
there fore
do es
Ġinc red
Ġsound s
Ġswe ep
Ġbreat he
Ġcent uries
Ġcol onel
Ġtrave l
resh old
ĠFrench man
ĠInd ia
Be au
Be fore
Ġhung ry
acqu es
ember ley
Ġpop ular
Ġwol ves
Ġrelie f
ĠChrist ian
cast le
Ġfortun ate
Ġdistr ict
Ġsuspic ion
Ġsummon ed
Ġsympath y
kelet on
Ãīlys Ã©es
1 8
B ah
M oreover
b ell
b ru
f r
n el
s ent
s uddenly
Ġt iny
ou ched
Ġb ought
Ġb ishop
Ġc el
an ina
Ġp ed
Ġp oured
âĢĿ ;
Ġl it
Ġl ance
ic ian
Ġbe wild
Ġre new
ir on
Ġst ol
ill ery
ter ranean
il ful
qu es
ous saint
res pect
ant ity
ĠS te
li est
Ġwhe els
Ġwill ing
Ġag ree
Ġpo ckets
Ġthr one
Ġpart ed
Ġatt racted
Ġnight s
Ġend ure
Ġlight s
Ġmor al
br ought
Ġste ady
ey e
pre c
Ġfur ious
Ġbreat hed
ĠPe ople
Ġbus y
Ġgrave ly
Ġbu y
Ġpat ron
Ġmer ry
ĠLe viathan
rid ges
Ġtem pest
Ġconcer n
Ġeat en
Ġband its
Ġenem ies
Ġdescri bed
Ġpal ace
ĠEvery thing
Ġrob ber
Ġintellig ent
Ġintrodu ced
Ġfield s
Ġhig hest
stru ck
Ġveh icle
Ġfoo lish
Ġcelebr ated
Ġbos om
uten ant
I G
M eanwhile
Q ueequeg
T rue
c at
d r
m atter
u able
w atch
Ġ 9
Ġ ident
he ar
in ous
Ġw ax
Ġb urn
Ġb att
Ġf ac
Ġc aut
Ġc aval
ar te
Ġd aring
as ions
Ġl ot
Ġl ake
ic o
ow l
Ġth ief
Ġre nt
al ready
ir s
ir ous
oo p
Ġsu spect
qu ite
ra it
ĠC atal
ĠC Ã¦sar
ul ations
ĠS an
Ġk ings
Ġsh own
Ġshe d
Ġli vres
um ps
ĠG rantaire
Ġcl ub
ign ant
act ion
Ġspe nd
con c
Ġcons isted
Ġapp ar
Ġlo aded
Ġbar rier
Ġins ult
Ġinter rog
arn ed
sp ap
Ġexcl amation
Ġfort night
Ġprom pt
Ġdr unk
Ġsum mit
Ġprop osed
Ġinv itation
Ġdesce nding
Ġbelong s
Ġcoll ected
Ġcommand ed
live red
Ġdeg rees
Ġpun ishment
Ġlim bs
Ġtender ness
Ġcru el
Ġencoun ter
Ġphilosop her
child ren
quis ite
Ġpi pe
Ġdisting uished
Ġrepro ach
ĠBonap art
Ġbeha viour
Ġmourn ful
astrop he
Ġobed ience
Ġtranquill ity
A hab
E T
O r
S hall
e re
i que
j our
l ay
m ps
s un
t ar
Ġt ied
re al
re ck
Ġs ource
Ġo wing
Ġc ul
Ġd ashed
Ġl ouis
ot ted
Ġe ast
Ġre ceiving
al so
Ġfor give
Ġst ick
ĠM ary
Ġse ldom
am ong
ĠA rab
Ġv ac
ist ing
Ġal oft
um et
ĠP arsee
ure ly
ĠV I
Ġout er
ĠG eneral
Ġqu ay
Ġpo et
old ed
ach ment
Ġfl ower
ret urned
Ġsc ru
fe et
Ġcar riages
so le
Ġimp ression
with in
Ġinst ru
Ġke en
ĠTh Ã©
Ġadd ressing
Ġgu ests
ute uil
sp read
Ġri g
unt arily
bl ood
ĠQ ue
Ġbene vol
Ġve ins
Ġpri oress
your self
Ġdelight ful
chan ge
Ġann ounce
Ġheav ily
Ġslight ly
Ġself ish
Ġcre ation
Ġcondu cted
bet ter
Ġstro ke
Ġdim in
Ġpenet rated
Ġcheer ful
Ġmil itary
Ġreve aled
Ġmot ive
Ġknock ed
Ġham mer
Ġattent ively
Ġestab lished
Ġappre hens
Ġprecaut ion
Cha pter
Ġconfl ict
Pic pus
A D
F rance
b us
b est
j ac
k in
p ossible
r im
s ister
t es
u ated
Ġt ale
Ġthe ft
Ġw oe
Ġs an
er ves
Ġb ucket
Ġd ate
as ants
Ġp uzz
Ġn ur
Ġn ice
om ach
Ġl ux
Ġbe ating
st ead
id ents
Ġre verend
al one
ad a
et ite
Ġwe aring
Ġme mber
and ed
il ities
ĠA ND
Ġso vere
all ing
ĠC ape
Ġbut ter
Ġsh rie
Ġr ic
ist ic
ol ent
ĠP acific
ig le
ĠL ike
Ġj et
od ule
me an
Ġad ored
Ġgr ou
Ġdis gu
Ġbl ame
Ġbr ide
-- --
Ġcount ed
Ġpass port
Ġret ire
Ġpr ice
Ġacc used
Ġlast ed
Ġco arse
ple asant
Ġlo ving
Ġsur ve
Ġgu essed
Ġconf ined
Ġchan ced
Ġwant ing
att ention
pro b
lish ment
su ccess
Ġdet ail
Ġchar m
Ġchar ged
Ġinc ome
Ġhel ped
Ġsent iment
Ġdep th
Ġdest ined
Ġstart ing
Ġpar adise
arch y
Ġtor ture
Ġinterest ed
Ġdut ies
Ġmass es
Ġdev otion
Ġclear ly
Ġapart ments
Ġsepar ate
Ġvague ly
Ġmoon light
Ġconcl usion
Ġdeli ber
Ġrelig ion
Ġrepres ent
Ġengage ment
Ġcomr ades
Ġnin et
Ġexceed ingly
bene ath
bro ken
ĠGer man
itc hen
convers ation
Ġvel vet
Ġstol en
C our
C aptain
J on
L a
M ay
S ee
T ell
U pon
W as
d ream
e ur
r ase
s im
z ed
Ġ 8
Ġ ign
re ls
ou ch
Ġb one
Ġf ist
ar me
Ġn igh
om p
Ġl ing
Ġre n
ĠM eryton
Ġde mon
pe nded
Ġcon c
ant ing
li ving
est ial
os al
Ġal as
ĠP or
ĠL ou
ag g
el ing
ert ained
ep ublic
Ġpl acing
Ġthen ce
ĠE dward
Ġany where
Ġhand ful
Ġch in
av ourite
ons ense
Ġpass ers
Ġret reated
ick en
And rea
Ġthrough out
Ġfriend ship
ex cl
Ġmar in
Ġpers piration
ple ased
Ġcomm it
Ġcr imes
Ġcor ners
mp ire
Ġpur sue
Ġconf usion
Ġinte nd
du ced
arm s
Ġint ently
Ġsk ull
ĠK ansas
Ġhel m
Ġred oubt
Ġdep os
Ġtri ump
Ġeng ine
Ġce iling
Ġexam ining
Ġwood s
Ġcontr ast
Ġelse where
Ġbott le
ĠWell ington
Ġpray er
reg ular
Ġnar r
Ġris en
Ġhes itated
Ġpriv ile
Ġsli pped
Ġfun eral
Ġpurcha sed
Ġdom estic
Ġdisting uish
feel ing
ĠPet it
Ġdispl ayed
ias m
Ġwel come
Ġinhabit ants
Ġsubst ance
ĠSund ay
Ġdisd ain
B ar
D ead
J acques
M iss
O L
a ul
c old
f ur
f lo
l in
l au
s per
t ree
is p
Ġm ix
Ġm ute
Ġf og
Ġc ash
Ġd aily
Ġp ag
Ġp osit
Ġin cess
st ud
Ġg athered
Ġg host
Ġwh irl
ir ass
Ġwith drew
Ġas h
Ġse ize
ĠA g
Ġso b
ĠH ence
qu ick
to ine
ĠB rujon
ust rious
art ed
em b
ĠT ashtego
Ġup stairs
ound ing
ĠD u
Ġwor ks
Ġpro long
Ġcan n
ile t
Ġen chant
Ġtr ick
Ġthr owing
Ġcont ents
Ġsc enes
con ven
Ġass ert
Ġfoll ows
ĠAl as
Ġrest ing
Ġrest ore
Ġins ist
Ġfind s
Ġtre mble
Ġfall s
Ġpol ic
Ġpol ite
Ġri bb
ĠLu cien
Ġfin ish
Ġrel ation
wor thy
Ġcalm ness
Ġem otions
Ġutter ing
Ġpray ers
Ġdisp osition
Ġdescri be
Ġignor ance
Ġant icip
ĠGu ard
Than k
Ġexchan ged
Ġeleg ant
Ġphant om
Ġnum erous
ĠHen ry
Ġfie nd
C har
E C
F ix
N or
P oor
R ue
c ab
e vid
f ish
g en
n ut
o x
r ained
s um
v at
Ġa head
Ġs en
ha med
Ġm ould
it self
en ra
Ġc unning
an ge
Ġn ations
om ed
Ġl ur
ic ted
Ġe cc
ent ric
Ġwas te
Ġre cei
Ġnot es
if ted
ĠH oly
us al
Ġman age
Ġsh owing
Ġno d
ĠT ran
ĠG reen
ci er
be came
Ġgr otto
Ġim pl
Ġcl asped
ĠR epublic
wh ose
de ck
cl osure
Ġpe ar
ip pe
Ġsc affold
sh ips
with standing
Ġend s
Ġhapp ens
ĠTh olomyÃ¨s
ĠTh Ã©nardiers
oun cing
Ġvis count
co ach
sp ir
Ġsecond s
Ġmur dered
Ġdi ary
Ġobser vation
Ġtra p
Ġtra gic
Ġce remon
Ġsecret s
Ġresol ute
Ġwar ning
Ġdri ver
Ġimag ined
oul at
Ġconst ru
Ġsens ible
Ġcand les
Ġband it
Ġaffection ate
rib ly
Ġexec uted
sec ond
Ġmir ror
Ġdeli ver
Ġfever ish
Ġban ks
Ġorig inal
Ġfisher y
Ġconve y
Ġener gy
Ġmult itude
Ġcompass ion
Ġrail way
Ġing en
Ġfee ble
Ġtheat re
Ġbor ne
Ġappo inted
overn ment
E L
S e
b oy
b ishop
c aptain
d em
g reen
k ers
l ost
m es
p en
p at
t ill
t imes
Ġt our
in n
in ning
Ġw ip
re f
ou te
Ġb urned
Ġd ried
Ġd ined
as es
Ġha ught
Ġn ails
âĢĿ âĢĶ
se a
Ġe ating
Ġde ed
ĠA uteuil
ant le
ĠB asque
Ġex ter
Ġfe m
Ġr ow
em ple
Ġal tar
ap se
ass ured
ive red
op o
ack s
be ar
ris ing
Ġpo verty
ĠO N
per ceived
ru elle
Ġpre cip
pl ess
Ġrem orse
Ġthr ong
Ġsm iles
fe ar
Ġimp r
ĠTh ou
com pre
Ġass urance
Ġexp ed
Ġsupp orted
Ġarri ving
su per
Ġsail ing
Ġdeep er
ĠY anina
ph il
Ġcol oss
Ġvisit or
Ġsy mpt
cons ider
Ġstrong ly
Ġsad ly
Ġrefle ctions
Ġquarter s
Ġbelong ing
af Ã©
Ġhist or
Ġmark s
Ġciv ility
Ġsett le
friend s
Ġwitness es
Ġconsequ ently
cor ner
Ġinsur gents
Ġearnest ly
Ġaband on
vre rie
Ġacknow led
Ġdwell ing
ĠRos ings
Ġunivers al
oulat ruelle
E D
L ouis
M ar
_ )
c il
c use
d iv
e v
g ener
m ates
m athieu
o ham
r Ã©
s ac
t ic
t rave
u ct
u ced
v est
x embourg
Ġ [
Ġt ip
Ġt aught
Ġw aking
Ġw rapped
Ġs keleton
Ġb ars
Ġb uck
ll e
Ġp ile
Ġp itch
Ġp arent
Ġe ag
Ġre ign
ur st
Ġst ove
Ġst ories
il ion
ĠC lerval
to ld
Ġsh one
ind eed
ĠT oul
ĠT oussaint
Ġup right
Ġpl ans
Ġun common
Ġsome one
Ġqu antity
Ġad jo
Ġthan ked
be gan
Ġdes irous
cl ose
Ġent ertain
Ġres c
ord ing
sh ort
con n
con tr
Ġchild hood
com pan
Ġcomm ission
Ġsub terranean
Ġpur ple
ial ity
br other
Ġbed room
Ġste ep
Ġfore ign
ho pe
let s
Ġact ions
ĠLu xembourg
unt il
ĠOn ce
Ġrel ations
ob ject
ĠDe ath
count enance
Ġsubject s
cri pt
Ġgall ery
Ġjour nal
off ic
Ġshar ks
Ġvessel s
ĠCar l
ĠCar conte
ĠPl umet
Ġconte mpt
Mor cerf
Ġcomfort able
Ġwretched ness
Ġproceed ing
ĠChar les
Ġweak ness
Ġrid ic
Ġrevol t
Ġpier ced
Ġsmo king
Ġwond rous
Ġrad iant
Ġinsp ired
Ġgend armes
ĠTur k
Ab out
Ġcler k
ĠBaptist in
Ġruff ians
bru ary
Ġcel estial
ĠQue en
5 00
G ive
J ane
b es
c oll
f ellow
g ir
g ave
h orses
l or
l ad
l ines
l itz
s ight
s ound
s old
u che
v ious
w omen
Ġt ight
Ġt ide
in f
in ations
in ction
Ġw ishing
it by
Ġc y
Ġc avern
Ġd rank
Ġh int
Ġin her
Ġin ches
Ġin eff
Ġn uns
se ven
st ers
Ġg ates
Ġg rey
ut y
ut tered
Ġth reshold
ver t
ac cept
Ġst if
Ġst out
Ġst ated
ĠM ed
Ġde livered
Ġso lic
ĠC ap
Ġbut ton
ĠS al
ĠB or
Ġv oc
Ġsh iver
art in
Ġal ter
ĠP emberley
ĠL ittle
Ġpl enty
Ġim mediate
Ġen veloped
Ġbl ank
Ġch ose
ĠR oyal
Ġtr aces
og ue
Ġcont ain
Ġfl ood
omet hing
Ġpres ently
Ġpres erve
Ġcons olation
Ġcons idering
Ġho arse
Ġfell ows
mp ossible
Ġgu est
Ġmother s
Ġche ek
Ġfo am
Ġinc ident
Ġprof it
Ġsent ence
On ly
Ġcol our
Ġevid ence
Ġexam ine
cri bed
Ġlaw s
Ġdiv ided
Ġoccasion ally
Ġjud gment
Ġsens ations
Ġfair ly
bar ric
Ġexpect ing
Ġden y
vis ible
Ġdrink ing
Ġspect acle
Ġeffort s
ear th
Ġcommun ication
Ġgra pe
Ġaud ience
Ġvent ured
EN T
sub ject
Ġdiamond s
Ġgard ener
uster litz
Ġtoss ed
Ġax e
Ġanch or
Ġhab its
Ġstupe fied
Ġorn am
Ġcu irass
Ġsus pected
A V
F ernand
c ried
e au
g az
h ome
i ven
l uck
s ch
w ant
Ġt on
in cess
Ġw ave
re ally
Ġs ire
Ġs ighed
ou ching
Ġb ab
Ġb lock
Ġf lies
Ġd amp
as ked
Ġh ing
Ġh ull
Ġl one
ot he
Ġy onder
Ġy awn
st ant
Ġg e
Ġg ent
ion ed
te l
qu ise
ge nd
our ces
Ġex ert
Ġle ar
ig ence
Ġun usual
ĠE mpire
of ten
ĠN ational
av y
Ġbr ut
Ġpre jud
old en
de ep
Ġtr unk
Ġoff ering
iz ard
ier re
Ġsc attered
Ġrec over
Ġter m
Ġwhale man
Ġsupp osing
lic ation
Ġaw akened
Ġadm ired
Ġprof ess
will ing
dis appeared
Ġland ing
Ġexc itement
Ġobser ving
Ġflo ating
Ġglo be
Ġcol umn
Ġinv est
Ġpar aly
Ġprob ability
imp ossible
Ġpat ience
Ġsad ness
Ġeffect s
Ġoffic ial
An other
Ġdisp osed
Ġchair s
ma ha
Ġfle e
Ġfirm ly
Ġlif t
Ġawait ed
Ġinhab ited
Ġble w
Ġharpoone ers
Ġweep ing
Ġdazz led
Ġgend arme
Ġcapt ured
Ġseam en
Ġvic inity
ĠPres ident
Ġtig er
Ġshel ter
Ġtro op
Ġcarp enter
Jon athan
Ġecc entric
A d
U S
a i
b ors
b ott
f urn
g ue
k ward
m os
m ise
n es
p ir
p han
p rison
p hew
s w
s ou
s it
t ra
Ġ z
he aven
Ġa in
Ġa ven
Ġw oke
re fle
Ġb ade
Ġm ates
Ġm ixed
it ations
Ġf ired
Ġc rest
es p
ar ched
Ġd ict
Ġp ains
Ġp aving
Ġin ward
Ġl osing
Ġe loqu
Ġre ward
Ġas hes
Ġas hamed
ro ar
ri olet
Ġst omach
Ġse rene
Ġme at
Ġher s
pe culiar
th ou
ĠA ss
Ġall ey
us ions
Ġex quisite
Ġle e
Ġle aped
Ġr ushing
Ġne phew
os er
ĠT emple
um s
el ed
ert ford
ab led
ĠG eor
Ġun just
Ġsp y
Ġsp ort
Ġsha ke
Ġdis appear
Ġpre fect
Ġtr ade
Ġhow ling
mb re
not es
Ġpart ly
Ġspe c
Ġbeg ged
Ġatt ic
Ġser geant
Ġend ured
Ġmar rying
ĠTh ree
ens es
Ġwind s
Ġte legraph
Ġcertain ty
Ġ1 1
Ġref rain
Ġsun rise
ane ously
Ġint im
Ġir re
head ed
ĠBe fore
Ġless on
ĠCha mps
Ġbest ow
Ġele ment
ific ation
Ġcold ly
Ġprop ri
Ġtrave lled
fl owers
pr ot
sm ith
Ġfav our
fact or
Ġconst ant
Ġmod e
Ġcra vat
Ġsac rific
Ġresemb les
ĠPl ace
Ġmus k
Ġguard ed
bb ing
Ġspeed ily
say ing
Ġawait ing
Ġph rase
Ġbeast s
Ġneighbor hood
ĠSp ain
Ġmil k
Ġbull et
Ġobst acle
olt aire
Ġrepres ented
ĠFe lix
ĠWest enra
Than ks
Ġfer ocious
!_ âĢĿ
ĠRen field
Ġwhit eness
Ġenthus iasm
ok oham
Ġecst asy
Ġbay on
Ġlawy er
ĠJac opo
ĠThÃ© odule
Cour feyrac
Ġash ore
ertford shire
okoham a
B esides
I C
M a
R O
a et
a ille
d og
f ing
h on
i ot
i Ã¨re
k ilt
m ur
m ate
m Ã©
n ar
o ard
r s
r it
t a
u pp
w onder
he ther
in ent
in ister
Ġb on
en ough
Ġf est
Ġd ancing
Ġh ue
Ġh oles
Ġp ett
Ġhe d
le ave
Ġn un
se par
Ġe jac
ve lled
ir med
Ġfor bid
te m
ight s
Ġcon grat
ĠS A
Ġman aged
Ġr ul
Ġr oute
ol s
ĠP ass
ĠL ake
el kilt
ĠG r
Ġro sy
ud gel
Ġcan e
lo om
ci vil
Ġen ig
Ġen sued
Ġbl ouse
Ġcl ad
Ġcl ung
ild ed
Ġpass ions
Ġtr oub
act ly
Ġcont aining
Ġra v
Ġpr udent
vent ion
ĠMon keys
Ġcons ult
atter ing
Ġho isted
Ġind uce
po cket
arn ival
Ġsuff iced
Ġnew spap
Ġserv ices
Ġgrand eur
Ġsk ill
Ġsound ed
ern ard
