{"<pad>":0,"<unk>":1,"<bos>":2,"<eos>":3,"!":4,"\"":5,"#":6,"$":7,"%":8,"&":9,"'":10,"(":11,")":12,"*":13,"+":14,",":15,"-":16,".":17,"/":18,"0":19,"1":20,"2":21,"3":22,"4":23,"5":24,"6":25,"7":26,"8":27,"9":28,":":29,";":30,"<":31,"=":32,">":33,"?":34,"@":35,"A":36,"B":37,"C":38,"D":39,"E":40,"F":41,"G":42,"H":43,"I":44,"J":45,"K":46,"L":47,"M":48,"N":49,"O":50,"P":51,"Q":52,"R":53,"S":54,"T":55,"U":56,"V":57,"W":58,"X":59,"Y":60,"Z":61,"[":62,"\\":63,"]":64,"^":65,"_":66,"`":67,"a":68,"b":69,"c":70,"d":71,"e":72,"f":73,"g":74,"h":75,"i":76,"j":77,"k":78,"l":79,"m":80,"n":81,"o":82,"p":83,"q":84,"r":85,"s":86,"t":87,"u":88,"v":89,"w":90,"x":91,"y":92,"z":93,"{":94,"|":95,"}":96,"~":97,"¡":98,"¢":99,"£":100,"¤":101,"¥":102,"¦":103,"§":104,"¨":105,"©":106,"ª":107,"«":108,"¬":109,"®":110,"¯":111,"°":112,"±":113,"²":114,"³":115,"´":116,"µ":117,"¶":118,"·":119,"¸":120,"¹":121,"º":122,"»":123,"¼":124,"½":125,"¾":126,"¿":127,"À":128,"Á":129,"Â":130,"Ã":131,"Ä":132,"Å":133,"Æ":134,"Ç":135,"È":136,"É":137,"Ê":138,"Ë":139,"Ì":140,"Í":141,"Î":142,"Ï":143,"Ð":144,"Ñ":145,"Ò":146,"Ó":147,"Ô":148,"Õ":149,"Ö":150,"×":151,"Ø":152,"Ù":153,"Ú":154,"Û":155,"Ü":156,"Ý":157,"Þ":158,"ß":159,"à":160,"á":161,"â":162,"ã":163,"ä":164,"å":165,"æ":166,"ç":167,"è":168,"é":169,"ê":170,"ë":171,"ì":172,"í":173,"î":174,"ï":175,"ð":176,"ñ":177,"ò":178,"ó":179,"ô":180,"õ":181,"ö":182,"÷":183,"ø":184,"ù":185,"ú":186,"û":187,"ü":188,"ý":189,"þ":190,"ÿ":191,"Ā":192,"ā":193,"Ă":194,"ă":195,"Ą":196,"ą":197,"Ć":198,"ć":199,"Ĉ":200,"ĉ":201,"Ċ":202,"ċ":203,"Č":204,"č":205,"Ď":206,"ď":207,"Đ":208,"đ":209,"Ē":210,"ē":211,"Ĕ":212,"ĕ":213,"Ė":214,"ė":215,"Ę":216,"ę":217,"Ě":218,"ě":219,"Ĝ":220,"ĝ":221,"Ğ":222,"ğ":223,"Ġ":224,"ġ":225,"Ģ":226,"ģ":227,"Ĥ":228,"ĥ":229,"Ħ":230,"ħ":231,"Ĩ":232,"ĩ":233,"Ī":234,"ī":235,"Ĭ":236,"ĭ":237,"Į":238,"į":239,"İ":240,"ı":241,"Ĳ":242,"ĳ":243,"Ĵ":244,"ĵ":245,"Ķ":246,"ķ":247,"ĸ":248,"Ĺ":249,"ĺ":250,"Ļ":251,"ļ":252,"Ľ":253,"ľ":254,"Ŀ":255,"ŀ":256,"Ł":257,"ł":258,"Ń":259,"Ġt":260,"he":261,"čĊ":262,"Ġa":263,"in":264,"Ġthe":265,"Ġw":266,"re":267,"Ġs":268,"Ġo":269,"âĢ":270,"ha":271,"nd":272,"ou":273,"er":274,"is":275,"ed":276,"Ġb":277,"Ġm":278,"it":279,"en":280,"on":281,"Ġf":282,"Ġof":283,"Ġc":284,"Ġto":285,"ing":286,"or":287,"Ġand":288,"ll":289,"es":290,"ar":291,"an":292,"Ġd":293,"as":294,"Ġh":295,"Ġp":296,"Ġin":297,"Ġhe":298,"at":299,"le":300,"Ġha":301,"Ġn":302,"âĢľ":303,"om":304,"âĢĿ":305,"hat":306,"Ġl":307,"ĠI":308,"ic":309,"ot":310,"Ġbe":311,"se":312,"Ġy":313,"st":314,"im":315,"Ġe":316,"ow":317,"ve":318,"Ġg":319,"id":320,"ut":321,"Ġth":322,"ent":323,"Ġwh":324,"Ġwas":325,"ly":326,"Ġon":327,"Ġyou":328,"Ġthat":329,"ld":330,"Ġre":331,"ce":332,"gh":333,"Ġhis":334,"Ġit":335,"al":336,"ith":337,"ver":338,"ion":339,"ad":340,"ir":341,"ay":342,"et":343,"Ġwith":344,"ur":345,"Ġis":346,"Ġas":347,"Ġnot":348,"Ġfor":349,"Ġu":350,"Ġhad":351,"ro":352,"The":353,"ght":354,"âĢĻ":355,"ri":356,"ac":357,"Ġst":358,"ĠM":359,"ill":360,"Ġwe":361,".âĢĿ":362,"Ġat":363,"her":364,"Ġsa":365,"ich":366,"Ġan":367,"ain":368,"Ġse":369,"Ġhim":370,"ter":371,"red":372,"Ġme":373,"Ġwhich":374,"am":375,"ould":376,"and":377,"ke":378,"Ġher":379,"Ġmy":380,"oo":381,"Ġde":382,"ct":383,"il":384,"ess":385,"Ġhave":386,"ĠâĢľ":387,"pe":388,"ch":389,"if":390,"th":391,"ĠA":392,"Ġso":393,"all":394,"the":395,"ore":396,"rom":397,"ĠThe":398,"te":399,"Ġsu":400,"Ġall":401,"âĢĶ":402,"ight":403,"ĠH":404,"qu":405,"ble":406,"ard":407,"Ġthis":408,"ra":409,"ĠC":410,"ĠĠ":411,"to":412,",âĢĿ":413,"ul":414,"Ġby":415,"Ġsaid":416,"Ġbut":417,"ous":418,"Ġwho":419,"ge":420,"ome":421,"us":422,"Ġcon":423,"res":424,"Ġdo":425,"ant":426,"Ġfrom":427,"ĠS":428,"sel":429,"ĠB":430,"our":431,"?âĢĿ":432,"Ġex":433,"Ġman":434,"nt":435,"Ġone":436,"Ġk":437,"Ġle":438,"pp":439,"li":440,"Ġv":441,"Ġsh":442,"Ġwhe":443,"ust":444,"Ġshe":445,"est":446,"ers":447,"ation":448,"Ġare":449,"Ġwere":450,"very":451,"ast":452,"ort":453,"Ġfe":454,"Ġr":455,"art":456,"ĠW":457,"Ġne":458,"out":459,"ist":460,"Ġno":461,"em":462,"un":463,"os":464,"Ġli":465,"self":466,"ong":467,"Ġor":468,"ind":469,"ol":470,"Ġal":471,"ĠT":472,"Ġup":473,"one":474,"ound":475,"ĠF":476,"Ġwill":477,"han":478,"au":479,"ak":480,"um":481,"ran":482,"ood":483,"Ġthere":484,"ĠHe":485,"ĠP":486,"Ġkn":487,"Ġthey":488,"ine":489,"Ġyour":490,"ĠD":491,"ame":492,"ose":493,"ap":494,"ck":495,"ig":496,"hed":497,"ough":498,"Ġbeen":499,"ven":500,"ate":501,"ost":502,"ass":503,"Ġthem":504,"ity":505,"ell":506,"ount":507,"Ġwould":508,"Ġcom":509,"ure":510,"Ġwhen":511,"ie":512,"ved":513,"urn":514,"ĠL":515,"Ġam":516,"ive":517,"ĠV":518,"Ġwor":519,"Ġab":520,"reat":521,"ff":522,"ide":523,"Ġj":524,"hing":525,"Ġwhat":526,"ag":527,"ked":528,"able":529,"Ġpro":530,"el":531,"ert":532,"Ġar":533,"itt":534,"ep":535,"ther":536,"Ġag":537,"ab":538,"ond":539,"ect":540,"Ġtheir":541,"Ġmore":542,"Ġout":543,"Ġtw":544,"ade":545,"!âĢĿ":546,"ime":547,"own":548,"ue":549,"Ġpl":550,"ĠG":551,"ars":552,"od":553,"Ġthen":554,"ish":555,"Ġun":556,"ake":557,"Ġsp":558,"op":559,"Ġro":560,"ence":561,"ace":562,"ire":563,"cc":564,"ĠE":565,"ice":566,"Ġif":567,"ack":568,"Ġhas":569,"me":570,"Ġsome":571,"Ġsha":572,"ĠJ":573,"pt":574,"ated":575,"his":576,"ĠĠĠĠ":577,"ance":578,"Ġgo":579,"ather":580,"Ġinto":581,"ry":582,"Ġany":583,"of":584,"Ġqu":585,"ite":586,"Ġcould":587,"Ġknow":588,"fore":589,"are":590,"ud":591,"Ġcan":592,"Ġad":593,"we":594,"Ġdid":595,"ng":596,"Ġlike":597,"lo":598,"Ġhand":599,"Ġthan":600,"Ġvery":601,"Ġother":602,"Ã©":603,"ress":604,"Ġsee":605,"ĠN":606,"other":607,"ci":608,"ving":609,"ought":610,"Ġus":611,"ĠIt":612,"be":613,"ean":614,"Ġgr":615,"ree":616,"ile":617,"ne":618,"nder":619,"way":620,"ment":621,"ris":622,"Ġtime":623,"Ġrep":624,"ove":625,"Ġonly":626,"ies":627,"Ġnow":628,"Ġover":629,"Ġday":630,"Ġpo":631,"Ġim":632,"Ġen":633,"Ġdis":634,"Ġtwo":635,"ook":636,"Ġbl":637,"Ġcl":638,"fter":639,"ĠO":640,"Ġagain":641,"ally":642,"Ġsay":643,"age":644,"ink":645,"Ġtoo":646,"Ġch":647,"ness":648,"Ġper":649,"ĠR":650,"ward":651,"ious":652,"wn":653,"ings":654,"ittle":655,"You":656,"per":657,"Ġmust":658,"Ġhimself":659,"ru":660,"av":661,"Ġshould":662,"ild":663,"led":664,"ful":665,"oll":666,"Ġlong":667,"Ġbr":668,"uch":669,"Ġey":670,"Ġdes":671,"ons":672,"Ġpre":673,"Ġseem":674,"old":675,"pl":676,"--":677,"Ġcount":678,"Ġpass":679,"man":680,"Ġits":681,"wh":682,"Ġrem":683,"that":684,"Ġmade":685,"Ġold":686,"de":687,"ions":688,"Ġtr":689,"ary":690,"ull":691,"irst":692,"for":693,"ign":694,"cl":695,"oss":696,"ted":697,"Ġlittle":698,"Ġthr":699,"Ġeven":700,"ang":701,"ach":702,"ath":703,"ari":704,"Ġbefore":705,"Ġthese":706,"end":707,"ened":708,"Ġent":709,"Ġgreat":710,"ife":711,"Ġevery":712,"Ġupon":713,"ps":714,"Ġgood":715,"fort":716,"Ġoff":717,"Ġret":718,"Ġres":719,"Ġafter":720,"Ġabout":721,"iz":722,"ise":723,"ried":724,"Ġsm":725,"Ġhow":726,"ves":727,"ced":728,"ier":729,"Ġmay":730,"ĠBut":731,"ave":732,"Ġsuch":733,"mb":734,"not":735,"ning":736,"He":737,"og":738,"Ġcha":739,"pect":740,"ick":741,"ord":742,"ible":743,"Ġbec":744,"act":745,"Ġcont":746,"ty":747,"ark":748,"right":749,"Ġunder":750,"Ġfirst":751,"Ġshall":752,"ared":753,"ft":754,"urned":755,"Ġthought":756,"oment":757,"Ġop":758,"ouse":759,"Ġour":760,"hen":761,"ĠMr":762,"Ġmuch":763,"Ġra":764,"ied":765,"ĠVal":766,"Ġpe":767,"Ġob":768,"Ġeyes":769,"ix":770,"ered":771,"ever":772,"Ġyoung":773,"Ġfl":774,"ip":775,"Ġpr":776,"Ġwithout":777,"lied":778,"cy":779,"Ġbo":780,"Ġwhere":781,"ret":782,"Ġwell":783,"And":784,"Ġye":785,"Ġap":786,"Ġsc":787,"omet":788,"Ġlet":789,"Ġdown":790,"Ġhead":791,"Ġmoment":792,"vent":793,"Ġown":794,"less":795,"Ġacc":796,"Ġthose":797,"med":798,"ged":799,"Ġthink":800,"Ġpart":801,"Ġspe":802,"Ġbet":803,"air":804,"che":805,"ady":806,"Ġway":807,"Ġdoor":808,"Ġnever":809,"Ġhere":810,"âĢĺ":811,"Ġmight":812,"ian":813,"riend":814,"Ġstill":815,"row":816,"ained":817,"fe":818,"Ġsame":819,"It":820,"Ġword":821,"Ġcome":822,"arius":823,"Ã¨":824,"Ġbeg":825,"Ġthrough":826,"ren":827,"Ġcar":828,"Ġgl":829,"thing":830,"Ġcomp":831,"ĠMon":832,"Ġmost":833,"les":834,"sh":835,"ĠAnd":836,"Ġjust":837,"Ġreplied":838,"hale":839,"ille":840,"Ġpres":841,"Ġseemed":842,"int":843,"Ġbeing":844,"Ġmen":845,"con":846,"Ġnothing":847,"so":848,"hy":849,"Ġback":850,"ily":851,"ished":852,"Ġfather":853,"Ġimp":854,"Ġlast":855,"Ġcall":856,"ase":857,"ater":858,"you":859,"ause":860,"ertain":861,"wards":862,"aking":863,"Ġsaw":864,"ail":865,"Ġhouse":866,"Ġatt":867,"ub":868,"Ġwent":869,"Ġrec":870,"Ġcons":871,"Ġmake":872,"Ġfriend":873,"Ġthough":874,"ors":875,"Ġser":876,"owed":877,"Yes":878,"with":879,"ner":880,"Ġnight":881,"most":882,"Ġlook":883,"Ġend":884,"Ġthree":885,"Ġlight":886,"was":887,"Ġlife":888,"ince":889,"aint":890,"Ġcame":891,"risto":892,"ĠMor":893,"ult":894,"Ġchild":895,"ling":896,"Ġhapp":897,"What":898,"iv":899,"Ġtook":900,"mer":901,"ex":902,"ĠShe":903,"cha":904,"rew":905,"ber":906,"eth":907,"Ġappe":908,"jean":909,"Ġinst":910,"oy":911,"Ġfound":912,"Ġonce":913,"Ġhour":914,"ched":915,"ls":916,"imes":917,"Ġsomet":918,"illefort":919,"tte":920,"ict":921,"ory":922,"But":923,"ces":924,"Ġco":925,"Ã¨s":926,"lf":927,"Ġmar":928,"ĠIn":929,"ĠThis":930,"iss":931,"Ġleft":932,"Ġtell":933,"Ġhar":934,"ĠCristo":935,"Ġheart":936,"ject":937,"Ġapp":938,"Ġaway":939,",âĢĶ":940,":âĢĶ":941,"der":942,"ks":943,"ĠYou":944,"Ġpers":945,"up":946,"Ġdist":947,"Ġwr":948,"here":949,"Ġke":950,"adame":951,"ĠValjean":952,"bert":953,"Ġyet":954,"Ġarm":955,"und":956,"ĠMarius":957,"lie":958,"Ġsl":959,"ĠTh":960,"Ġwom":961,"Ġadd":962,"osette":963,"ens":964,"ently":965,"Ġroom":966,"Ġseen":967,"ows":968,"ired":969,"Ġtake":970,"Ġwind":971,"ss":972,"Ġsec":973,"Ġwhom":974,"lt":975,"Ġter":976,"atter":977,"com":978,"Ġplace":979,"aught":980,"ĠMonte":981,"Ġposs":982,"Ġass":983,"oub":984,"ined":985,"ple":986,"king":987,"ĠThere":988,"Ġheard":989,"ew":990,"ither":991,"ans":992,"Ġwhile":993,"ins":994,"ways":995,"cei":996,"Ġasked":997,"rel":998,"igh":999,"ĠThey":1000,"lars":1001,"ooked":1002,"Ġright":1003,"which":1004,"oice":1005,"aken":1006,"anglars":1007,"but":1008,"Ġcomm":1009,"ĠVillefort":1010,"az":1011,"Ġfoll":1012,"Ġho":1013,"Ġwhale":1014,"ister":1015,"Ġname":1016,"rave":1017,"iness":1018,"Ġlo":1019,"ations":1020,"Ġsir":1021,"ĠJean":1022,"Ġget":1023,"part":1024,"get":1025,"oth":1026,"ait":1027,"Ġte":1028,"Ġhands":1029,"Ġeach":1030,"ener":1031,"Ġtowards":1032,"Ġdear":1033,"ER":1034,"Ġever":1035,"Ġstre":1036,"Ġfell":1037,"Ġear":1038,"Ġcr":1039,"ĠGod":1040,"ating":1041,"ĠAl":1042,"Ġbar":1043,"tain":1044,"den":1045,"ene":1046,"ĠFran":1047,"Ġfeel":1048,"Ġsur":1049,"ower":1050,"pped":1051,"ween":1052,"aris":1053,"had":1054,"ction":1055,"oud":1056,"Ġcor":1057,"ued":1058,"Ġlove":1059,"aw":1060,"Ġexp":1061,"cept":1062,"aid":1063,"cer":1064,"ople":1065,"rest":1066,"Ġmon":1067,"leep":1068,"vers":1069,"mp":1070,"Ġsil":1071,"Ġsoon":1072,"Ġmind":1073,"Ġmyself":1074,"Ġmor":1075,"osed":1076,"Ġpassed":1077,"Ġsort":1078,"Ġpoor":1079,"ured":1080,"Ġalmost":1081,"Ġcertain":1082,"ition":1083,"by":1084,"Ġlooked":1085,"men":1086,"oun":1087,"Ġrest":1088,"Ġaff":1089,"No":1090,"Ġface":1091,"Ġvis":1092,"Ġins":1093,"Ġsub":1094,"Ġcried":1095,"Ġhor":1096,"Ġpur":1097,"Ġind":1098,"Ġstran":1099,"day":1100,"nded":1101,"him":1102,"rac":1103,"Ġmany":1104,"read":1105,"Ġput":1106,"ger":1107,"hes":1108,"Ġsou":1109,"Ġset":1110,"Ġsupp":1111,"aut":1112,"po":1113,"Ġac":1114,"Ġsw":1115,"ĠâĢĺ":1116,"Ġgu":1117,"Ġread":1118,"Ġnear":1119,"Ġalways":1120,"cess":1121,"atch":1122,"ĠSt":1123,"Ġfelt":1124,"00":1125,"Ġside":1126,"Ġanother":1127,"Ġfew":1128,"Ġgoing":1129,"Ġthing":1130,"In":1131,"Ġdra":1132,"Ġgir":1133,"Ġwhole":1134,"ĠDanglars":1135,"Ġple":1136,"liz":1137,"ale":1138,"Ġconf":1139,"Ġworld":1140,"ĠNo":1141,"Ġcap":1142,"ont":1143,"Ġopen":1144,"Ġ1":1145,"its":1146,"Ġagainst":1147,"ular":1148,"Ã©n":1149,"Ġyears":1150,"Ġocc":1151,"ĠCosette":1152,"ting":1153,"Oh":1154,"Ġair":1155,"ial":1156,"Ġhaving":1157,"Ġdoes":1158,"Ġfar":1159,"Ġfind":1160,"br":1161,"Ġfour":1162,"Ġvoice":1163,"ised":1164,"Ġinter":1165,"stand":1166,"ceived":1167,"Ġturn":1168,"hab":1169,"Ġgive":1170,"CH":1171,"light":1172,"Ġsomething":1173,"Ġwoman":1174,"Ġref":1175,"ached":1176,"Ġcalled":1177,"ĠWhat":1178,"antÃ¨s":1179,"Ġide":1180,"Ġgi":1181,"ug":1182,"Ġturned":1183,"Ġdone":1184,"Ġtre":1185,"orm":1186,"abeth":1187,"lizabeth":1188,"Ġhalf":1189,"owing":1190,"ute":1191,"ressed":1192,"Well":1193,"Ġsince":1194,"Ġchan":1195,"lock":1196,"Ġbetween":1197,"ery":1198,"entine":1199,"ten":1200,"ures":1201,"ĠRue":1202,"Ġmother":1203,"This":1204,"Ġreg":1205,"Ġpoint":1206,"Ġwant":1207,"Ġans":1208,"Ġbed":1209,"ention":1210,"selves":1211,"Ġpresent":1212,"Ġcontin":1213,"esc":1214,"Ġthings":1215,"TER":1216,"ical":1217,"tered":1218,"Ġreturned":1219,"Ġdeath":1220,"Ġbelie":1221,"ĠAt":1222,"Ġinte":1223,"une":1224,"Ġmorning":1225,"co":1226,"arn":1227,"ĠParis":1228,"Ġ_":1229,"Ġhum":1230,"undred":1231,"Ġste":1232,"Ġfull":1233,"riage":1234,"Ġsuff":1235,"Ġnat":1236,"ĠWe":1237,"used":1238,"Ġletter":1239,"vid":1240,"Ġ*":1241,"lic":1242,"aced":1243,"uck":1244,"AP":1245,"Ġcour":1246,"Ġmin":1247,"aster":1248,"ross":1249,"rible":1250,"Ġsign":1251,"ric":1252,"ceed":1253,"ĠĠĠĠĠĠ":1254,"ĠMorrel":1255,"aring":1256,"Ġround":1257,"Ġwhose":1258,"ĠAlbert":1259,"haps":1260,"Ġlonger":1261,"ib":1262,"att":1263,"Ġpeople":1264,"Ġdead":1265,"entle":1266,"ousand":1267,"oubt":1268,"ited":1269,"ents":1270,"ĠMadame":1271,"ken":1272,"Ġfam":1273,"Ġsea":1274,"Ġadv":1275,"Ġbeh":1276,"Ġnew":1277,"Ġalone":1278,"Ġwords":1279,"ranc":1280,"uring":1281,"ser":1282,"ody":1283,"APTER":1284,"Ġalso":1285,"now":1286,"ably":1287,"no":1288,"Ġtold":1289,"ized":1290,"aim":1291,"ets":1292,"Ġbegan":1293,"Ġperson":1294,"oke":1295,"Ġwal":1296,"ank":1297,"Ġship":1298,"ual":1299,"Ġtaken":1300,"appe":1301,"ately":1302,"sp":1303,"land":1304,"ety":1305,"Ġknew":1306,"ude":1307,"Ġcur":1308,"Ġdark":1309,"CHAPTER":1310,"Ġwall":1311,"Ġwhite":1312,"du":1313,"Ġarri":1314,"ering":1315,"Ġsun":1316,"ogg":1317,"Ġmis":1318,"aver":1319,"irt":1320,"this":1321,"ĠThen":1322,"Ġinde":1323,"que":1324,"Ġsat":1325,"rancs":1326,"ĠAs":1327,"Ġfall":1328,"ason":1329,"erous":1330,"Ġform":1331,"Ġcannot":1332,"what":1333,"have":1334,"Ġfore":1335,"Ġstr":1336,"ĠDantÃ¨s":1337,"Ġserv":1338,"ides":1339,"Ġspeak":1340,"At":1341,"ane":1342,"There":1343,"Ġgirl":1344,"vol":1345,"Ġwork":1346,"arm":1347,"Ġdif":1348,"Ġnor":1349,"Ġdays":1350,"ready":1351,"Ã©nard":1352,"ingle":1353,"Ġinf":1354,"Ġsleep":1355,"Ġbre":1356,"ieur":1357,"ster":1358,"That":1359,"Ġche":1360,"ung":1361,"Ġtal":1362,"Ġhundred":1363,"full":1364,"enty":1365,"pro":1366,"Ġboth":1367,"ains":1368,"Ġquite":1369,"Ġbecause":1370,"ĠFogg":1371,"Ġdire":1372,"ho":1373,"wer":1374,"onsieur":1375,"Ġwish":1376,"ĠWhen":1377,"Then":1378,"Ġblack":1379,"Ġentered":1380,"..":1381,"bed":1382,"Ġeff":1383,"Ġhon":1384,"Ġwait":1385,"Ġint":1386,"Ġorder":1387,"Ġexcl":1388,"ey":1389,"alm":1390,"Ġkind":1391,"ois":1392,"Ġir":1393,"head":1394,"Ġsmall":1395,"Ġlar":1396,"fect":1397,"Ġpol":1398,"Ġthousand":1399,"illed":1400,"Ġmatter":1401,"Ġfo":1402,"Ġcare":1403,"Ġboat":1404,"long":1405,"Ġbro":1406,"Ġfact":1407,"val":1408,"Ġaw":1409,"Ġherself":1410,"Ġanything":1411,"lish":1412,"Ġfear":1413,"su":1414,"over":1415,"Ġgentle":1416,"Ġfrancs":1417,"amp":1418,"Ġreturn":1419,"Ġopened":1420,"ution":1421,"Ġevening":1422,"gr":1423,".âĢĻ":1424,"Ġmo":1425,"Ġpleas":1426,"Ah":1427,"ates":1428,"Ġgrand":1429,"Ġsix":1430,"Ġleast":1431,"ney":1432,"Ġamong":1433,"Ġgave":1434,"Ġext":1435,"itted":1436,"mpt":1437,"Ġwater":1438,"Ġri":1439,"Ġdet":1440,"asse":1441,"let":1442,"Ġhope":1443,"ash":1444,"Ã©nardier":1445,"Ġsk":1446,"Ġsim":1447,"fully":1448,"my":1449,"where":1450,"Ġhowever":1451,"mber":1452,"Ġfort":1453,"Ġstep":1454,"Ġsail":1455,"there":1456,"cul":1457,"ĠHis":1458,"ĠElizabeth":1459,"Ġact":1460,"Ġfive":1461,"ia":1462,"mon":1463,"Ġel":1464,"Ġgener":1465,"ĠBe":1466,"ĠLu":1467,"Ġhear":1468,"aughter":1469,"do":1470,"Ġut":1471,"Ġthus":1472,"unt":1473,"overed":1474,"Ġunderstand":1475,"uth":1476,"ĠĠĠĠĠĠĠĠ":1477,"ĠValentine":1478,"ror":1479,"ying":1480,"ream":1481,"orrow":1482,"Ġsecond":1483,"gether":1484,"Ġbehind":1485,"ield":1486,"rison":1487,"Ġless":1488,"Ġmean":1489,"ĠIf":1490,"ĠK":1491,"Ġdoubt":1492,"ĠFor":1493,"âĢĶâĢĶ":1494,"Ġleave":1495,"Ġbetter":1496,"Ġsoul":1497,"sc":1498,"Ġfeet":1499,"Ġsister":1500,"Ġchar":1501,"vil":1502,"Ġinc":1503,"ĠEng":1504,"bl":1505,"ths":1506,"aimed":1507,"Ġfr":1508,"Ġcond":1509,"otion":1510,"ock":1511,"room":1512,"Ġalready":1513,"Ġhard":1514,"Ġcontinued":1515,"ott":1516,"ax":1517,"aces":1518,"Ġremained":1519,"She":1520,"Ġquest":1521,"Ġidea":1522,"Ġsure":1523,"ards":1524,"aven":1525,"Ġindeed":1526,"Ġill":1527,"Ġsound":1528,"ern":1529,"Ġabs":1530,"Ġadm":1531,"ches":1532,":--":1533,"any":1534,"ants":1535,"dden":1536,"ities":1537,"Ġprom":1538,"Ġhel":1539,"Ġbeaut":1540,"pre":1541,"Ġsight":1542,"ĠThat":1543,"ĠFranz":1544,"Ġlarge":1545,"My":1546,"Ġstrange":1547,"ĠQ":1548,"ĠCha":1549,"ments":1550,"itude":1551,"Ġbene":1552,"Ġappear":1553,"Ġbelieve":1554,"ask":1555,"irc":1556,"though":1557,"Ġbest":1558,"like":1559,"Ġadded":1560,"Ġcle":1561,"As":1562,"Ġenough":1563,"xt":1564,"Ġtran":1565,"Ġlost":1566,"cted":1567,"ĠAhab":1568,"Ġmanner":1569,"Ġsudden":1570,"Ġrather":1571,"Ġprof":1572,"Th":1573,"Ġswe":1574,"Ġmist":1575,"ances":1576,"Ġstru":1577,"Ġkeep":1578,"Ġ.":1579,"Ġneed":1580,"eng":1581,"Ġstand":1582,"ĠOn":1583,"Ġtrue":1584,"Ġesc":1585,"Ġred":1586,"Ġlive":1587,"avert":1588,"ec":1589,"Ġreally":1590,"Ġfin":1591,"ird":1592,"Ġbur":1593,"bo":1594,"clock":1595,"âĢľâĢĺ":1596,"rie":1597,"ually":1598,"Ġmid":1599,"Ġhold":1600,"Ġele":1601,"from":1602,"Ġten":1603,"Ġbecome":1604,"How":1605,"als":1606,"Ġinstant":1607,"Ġcase":1608,"ĠAll":1609,"Ġperhaps":1610,"Ġtable":1611,"Ġeye":1612,"When":1613,"Ġdr":1614,"Ġpap":1615,"utes":1616,"Ġeverything":1617,"Ġappeared":1618,"akes":1619,"Ġtimes":1620,"Ġstood":1621,"ĠSaint":1622,"she":1623,"Ġbecame":1624,"Ġthemselves":1625,"gg":1626,"Ġlay":1627,"ogn":1628,"Ġhours":1629,"Ġsent":1630,"Ġlist":1631,"Ġdeep":1632,"ĠCh":1633,"Ġyourself":1634,"form":1635,"Ġmur":1636,"enn":1637,"ific":1638,"We":1639,"aving":1640,"Ġtill":1641,"Ġsum":1642,"Ġexclaimed":1643,"ĠCount":1644,"ĠOne":1645,"Ġarms":1646,"Ġdep":1647,"who":1648,"Ġhappy":1649,"ĠY":1650,"Ġfire":1651,"ph":1652,"will":1653,"Ġwatch":1654,"elle":1655,"Ġappro":1656,"Ġve":1657,"arden":1658,"Ġhuman":1659,"fer":1660,"ina":1661,"dis":1662,"Ġbes":1663,"ĠMy":1664,"Ġaround":1665,"II":1666,"pris":1667,"Ġgaz":1668,"cell":1669,"aderous":1670,"rig":1671,"Ġalong":1672,"Ġgiven":1673,"aderousse":1674,"ider":1675,"arcy":1676,"Ġpower":1677,"Ġlau":1678,"Ġdon":1679,"ided":1680,"iled":1681,"Ġplaced":1682,"use":1683,"Ġclose":1684,"Ġyes":1685,"night":1686,"ines":1687,"Ġpossess":1688,"under":1689,"Ġdi":1690,"pected":1691,"Ġterrible":1692,"bour":1693,"Ġson":1694,"Ġmaster":1695,"Ġhome":1696,"Ġhigh":1697,"Ġlow":1698,"Ġopp":1699,"Ġfur":1700,"Ġpri":1701,"Ġpossible":1702,"Ġexpress":1703,"Ġtri":1704,"Ġheld":1705,"Ġshort":1706,"Ġjoy":1707,"Ġcold":1708,"Ġdro":1709,"quired":1710,"fic":1711,"Ġwhy":1712,"ection":1713,"Ġtou":1714,"Ġland":1715,"wered":1716,"ossible":1717,"ident":1718,"Ġearth":1719,"app":1720,"Ġgone":1721,"Ġprison":1722,"Ġunt":1723,"Ġmeans":1724,"Ġtwenty":1725,"ped":1726,"Ġshad":1727,"rent":1728,"Ġcreat":1729,"Ġeas":1730,"ĠSo":1731,"Ġrel":1732,"partout":1733,"assepartout":1734,"Ġcourse":1735,"Ġfamily":1736,"ned":1737,"Ġreal":1738,"Ġreason":1739,"ool":1740,"Ġprop":1741,"Ġcarriage":1742,"oney":1743,"Ġwindow":1744,"Ġitself":1745,"Ġexc":1746,"ape":1747,"ility":1748,"Ġobser":1749,"them":1750,"Ġothers":1751,"cerf":1752,"hile":1753,"Ġbreat":1754,"Ġblood":1755,"Ġsmile":1756,"Ġhast":1757,"umed":1758,"band":1759,"Ġtra":1760,"Ġdest":1761,"Ġatte":1762,"Ġbrought":1763,"ixed":1764,"erm":1765,"Ġexist":1766,"rem":1767,"Ġstart":1768,"Ġdec":1769,"onder":1770,"Ġ(":1771,"Ġwithin":1772,"ĠDarcy":1773,"Ġflo":1774,"Ġcountry":1775,"ead":1776,"par":1777,"Ġconv":1778,"Ġstreet":1779,"go":1780,"nding":1781,"They":1782,"were":1783,"ras":1784,"arter":1785,"Ġgot":1786,"Ġeng":1787,"Ġfriends":1788,"Ġglo":1789,"Ġask":1790,"ĠAr":1791,"they":1792,"ĠThÃ©nardier":1793,"Ġduring":1794,"iful":1795,"ĠMrs":1796,"wing":1797,"ĠPe":1798,"ense":1799,"Ġoften":1800,"ected":1801,"cious":1802,"Ġsaying":1803,"Do":1804,"Ġdie":1805,"Ġnext":1806,"ring":1807,"vi":1808,"reen":1809,"adem":1810,"ief":1811,"rupt":1812,"erc":1813,"Ġcent":1814,"Ġcoming":1815,"Ġanswered":1816,"On":1817,"uff":1818,"outh":1819,"Ġcol":1820,",âĢĻ":1821,"ob":1822,"wor":1823,"Ġinv":1824,"Ġ18":1825,"Ġuse":1826,"ĠHow":1827,"aire":1828,"ient":1829,"othy":1830,"Ġbody":1831,"orothy":1832,"bÃ©":1833,"iar":1834,"inct":1835,"ayed":1836,"ishop":1837,"appeared":1838,"Why":1839,"wo":1840,"Ġtrave":1841,"oura":1842,"Ġfif":1843,"ounded":1844,"kn":1845,"Ġcirc":1846,"ĠTo":1847,"rench":1848,"anc":1849,"Ġperfect":1850,"Ġdesp":1851,"Ġtogether":1852,"ĠDe":1853,"Ġground":1854,"lled":1855,"ingly":1856,"Ġhus":1857,"Ġnecess":1858,"Ġfellow":1859,"ĠEnglish":1860,"Ġwife":1861,"Ġhat":1862,"Ġrun":1863,"Ġminutes":1864,"ah":1865,"ctor":1866,"Ġvi":1867,"Ġremain":1868,"would":1869,"inted":1870,"Ġdream":1871,"medi":1872,"father":1873,"ination":1874,"Ġdaughter":1875,"Ġeight":1876,"Ġraised":1877,"Ġcomple":1878,"Ġcast":1879,"Ġcross":1880,"Ġpar":1881,"peri":1882,"Ġvisit":1883,"count":1884,"Ġwha":1885,"Ġbus":1886,"ased":1887,"Ġang":1888,"Ġrose":1889,"Ġsometimes":1890,"ler":1891,"pid":1892,"Ġknown":1893,"fied":1894,"Ġfoot":1895,"Ġroad":1896,"ouble":1897,"Ġremem":1898,"ĠMorcerf":1899,"Ġuntil":1900,"Ġable":1901,"iew":1902,"rence":1903,"Jean":1904,"ming":1905,"Ġmad":1906,"hil":1907,"ages":1908,"Ġsilence":1909,"happ":1910,"Ġseems":1911,"Ġfollowed":1912,"Ġmoney":1913,"arch":1914,"tern":1915,"Ġsoci":1916,"Ġexcell":1917,"iously":1918,"Ġpale":1919,"ices":1920,"ĠCaderousse":1921,"oiselle":1922,"hand":1923,"ising":1924,"Ġfa":1925,"orn":1926,"Ġmeet":1927,"ubb":1928,"Ġquestion":1929,"ademoiselle":1930,"Marius":1931,"Ġcut":1932,"Ġevid":1933,"._":1934,"Ġcalm":1935,"Ġgarden":1936,"irtier":1937,"Ġce":1938,"rying":1939,"ĠOh":1940,"Ġsecret":1941,"Ġbit":1942,"Ġtor":1943,"Ġstra":1944,"dm":1945,"ges":1946,"Ġfine":1947,"To":1948,"side":1949,"ushed":1950,"Ġabove":1951,"Ġobject":1952,"Ġbeneath":1953,"your":1954,"Ġdrew":1955,"Ġsto":1956,"Ġiron":1957,"aused":1958,"yed":1959,"Ġtaking":1960,"Ġgrave":1961,"airs":1962,"Ġbegin":1963,"Ġmag":1964,"Ġrepe":1965,"Ġprob":1966,"aves":1967,"gs":1968,"ĠU":1969,"Ġdisc":1970,"Ġsurpris":1971,"Ġmet":1972,"ones":1973,"Ġspoke":1974,"ham":1975,"Ġmount":1976,"ency":1977,"Ġconce":1978,"Ġexam":1979,"aptain":1980,"Ġsubject":1981,"Ġinterest":1982,"well":1983,"Ġhair":1984,"Ġstud":1985,"resh":1986,"Ġart":1987,"ennet":1988,"Ġmaking":1989,"Ġreached":1990,"their":1991,"If":1992,"come":1993,"imp":1994,"Ġreceived":1995,"Ġworth":1996,"Ġwood":1997,"Ġsy":1998,"Ġheaven":1999,"ĠJavert":2000,"ging":2001,"ught":2002,"ye":2003,"Ġaccom":2004,"HE":2005,"ats":2006,"Ġwhether":2007,"Ġran":2008,"more":2009,"ues":2010,"ĠX":2011,"Ġsit":2012,"Ġlad":2013,"Ġhusband":2014,"dmond":2015,"So":2016,"asion":2017,"Ġrespect":2018,"ize":2019,"Ġlooking":2020,"Ġhelp":2021,"Ġport":2022,"Ġrecogn":2023,"Ġfree":2024,"Ġpost":2025,"umb":2026,"Al":2027,"pan":2028,"ĠPro":2029,"cket":2030,"rea":2031,"arse":2032,"anced":2033,"Ġtherefore":2034,"Ġquick":2035,"omy":2036,"Ġcontr":2037,"Ġarrived":2038,"cri":2039,"when":2040,"Ġdem":2041,"Ġaccount":2042,"ingley":2043,"spe":2044,"Ġsuddenly":2045,"Ġexcept":2046,"Ġentire":2047,"cons":2048,"fl":2049,"Ġfast":2050,"irm":2051,"Ġstrong":2052,"Ġbreak":2053,"athan":2054,"Ġthou":2055,"Ġnature":2056,"Ġbu":2057,"Ġpat":2058,"ented":2059,"aled":2060,"ĠDorothy":2061,"Ġresol":2062,"pass":2063,"sed":2064,"Ġlaw":2065,"ustom":2066,"Ġchildren":2067,"how":2068,"ining":2069,"str":2070,"imil":2071,"Ġbarric":2072,"Ġlaugh":2073,"eness":2074,"Ġhur":2075,"Ġpast":2076,"iece":2077,"ferent":2078,"oly":2079,"sha":2080,"Ġbad":2081,"Ġmer":2082,"Ġready":2083,"ceive":2084,"roche":2085,"ĠSe":2086,"All":2087,"inter":2088,"Ġla":2089,"vel":2090,"Ġspir":2091,"avroche":2092,"Ġfortune":2093,"Ġelse":2094,"Ġeither":2095,"ĠFau":2096,"Ġanswer":2097,"ceeded":2098,"got":2099,"ored":2100,"pr":2101,"levent":2102,"semb":2103,"ury":2104,"ĠMiss":2105,"ĠLe":2106,"pose":2107,"Ġwar":2108,"Ġwild":2109,"Ġstri":2110,"ively":2111,"itting":2112,"retched":2113,"Ġviol":2114,"ening":2115,"Ġpay":2116,"owers":2117,"ĠFrench":2118,"Ġbox":2119,"ference":2120,"rely":2121,"Ġpain":2122,"veral":2123,"ĠHels":2124,"ĠVan":2125,"Ġstruck":2126,"ĠHelsing":2127,"Mr":2128,"some":2129,"ĠBennet":2130,"Ġlips":2131,"Ġdesce":2132,"dered":2133,"chelevent":2134,"Ġsing":2135,"Ġsad":2136,"Ġfixed":2137,"Ġseeing":2138,"ength":2139,"aj":2140,"Ġpen":2141,"Ġequ":2142,"osition":2143,"been":2144,"Ġclosed":2145,"ural":2146,"Ġbrother":2147,"Ġattention":2148,"Ġhappiness":2149,"ouis":2150,"Ġfright":2151,"Ġgall":2152,"ush":2153,"Ġfront":2154,"Ġbeautiful":2155,"Ġtown":2156,"leine":2157,"adeleine":2158,"Ġconsider":2159,"Ġcaptain":2160,"Ġrefle":2161,"Ġlead":2162,"tr":2163,"Ġbott":2164,"Ġgeneral":2165,"Ġem":2166,"ublic":2167,"mediately":2168,"rid":2169,"ots":2170,"Ġexpl":2171,"ĠDo":2172,"Ġeffect":2173,"Ġsweet":2174,"can":2175,"held":2176,"Ġdut":2177,"Ġemb":2178,"Ġquarter":2179,"Now":2180,"iling":2181,"Ġsol":2182,"race":2183,"orses":2184,"Ġcertainly":2185,"Ġtem":2186,"Ġdu":2187,"ton":2188,"Ġrequ":2189,"Ġenc":2190,"sm":2191,"Ġknows":2192,"Ã©d":2193,"ole":2194,"Ġdri":2195,"Ġdepart":2196,"ĠAn":2197,"ĠPassepartout":2198,"Ġyear":2199,"cent":2200,"care":2201,"icked":2202,"ĠBar":2203,"aged":2204,"Ġpartic":2205,"Ġcorner":2206,"Ġhonor":2207,"Ġage":2208,"Ġmove":2209,"Ġsold":2210,"Ġkept":2211,"Ġfat":2212,"Ġforth":2213,"Ġoffic":2214,"Ġcarried":2215,"iers":2216,"Ġbook":2217,"itation":2218,"Ġdelight":2219,"Ġjour":2220,"Ġprodu":2221,"Ġpaper":2222,"ignor":2223,"aximil":2224,"aximilian":2225,"aff":2226,"Ġdiv":2227,"teen":2228,"ĠBingley":2229,"Ġplay":2230,"ĠNow":2231,"ship":2232,"Ã¢":2233,"Ġast":2234,"Ġwonder":2235,"culiar":2236,"Ġpret":2237,"Ġglass":2238,"Ġglance":2239,"Ġimpossible":2240,"Ġevent":2241,"alth":2242,"Ġanx":2243,"Ġconvers":2244,"Ġscar":2245,"Not":2246,"Ġgold":2247,"Ġbring":2248,"Ġwomen":2249,"Ġsteps":2250,"chan":2251,"stood":2252,"ĠNoirtier":2253,"Ġcause":2254,"Ġview":2255,"Ġliving":2256,"umst":2257,"cience":2258,"Let":2259,"Ġwat":2260,"Ġfav":2261,"iles":2262,"Ġrapid":2263,"ĠFrance":2264,"known":2265,"min":2266,"morrow":2267,"har":2268,"Ġmention":2269,"Ġlength":2270,"ĠIs":2271,"iced":2272,"Ġbelong":2273,"Ġseveral":2274,"ĠLucy":2275,"Ġbarricade":2276,"bre":2277,"ality":2278,"ĠMonsieur":2279,"ercÃ©d":2280,"ercÃ©dÃ¨s":2281,"uous":2282,"Ġbank":2283,"Ġfan":2284,"ote":2285,"Ġord":2286,"000":2287,"bs":2288,"gl":2289,"vo":2290,"Ġline":2291,"Ġund":2292,"ists":2293,"isted":2294,"Ġcomes":2295,"Ġobli":2296,"Ġturning":2297,"Ġescape":2298,"every":2299,"Ġann":2300,"while":2301,"ĠAndrea":2302,"Ãī":2303,"ishing":2304,"Ġpocket":2305,"Ġtruth":2306,"Ġmonths":2307,"Ġacqu":2308,"uc":2309,"enorm":2310,"ement":2311,"Ġqui":2312,"Ġimag":2313,"Ġfollowing":2314,"Ġsatis":2315,"then":2316,"Ġjo":2317,"cient":2318,"Ġfloor":2319,"ĠHer":2320,"Ġconcer":2321,"Ġoccasion":2322,"Ġappearance":2323,"body":2324,"Ġmouth":2325,"Ġheav":2326,"ĠThese":2327,"fast":2328,"fact":2329,"jol":2330,"Ġstate":2331,"ume":2332,"Ġaccord":2333,"eque":2334,"Ġtone":2335,"Ġdang":2336,"ĠMadeleine":2337,"ĠWhale":2338,"ump":2339,"ueeque":2340,"ĠNot":2341,"champ":2342,"ueequeg":2343,"ĠWell":2344,"Ġthoughts":2345,"crow":2346,"njol":2347,"Ġsal":2348,"hant":2349,"itated":2350,"Ġformed":2351,"teau":2352,"Ġkne":2353,"ĠEdmond":2354,"ledge":2355,"Ġnecessary":2356,"njolras":2357,"Ġcaught":2358,"arb":2359,"ĠBishop":2360,"ĠJane":2361,"himself":2362,"âĢĶâĢĶâĢĿ":2363,"Ġenter":2364,"Ġnearly":2365,"Ġoccup":2366,"Ġgentleman":2367,"rief":2368,"Ġgreen":2369,"umber":2370,"els":2371,"Ġcloud":2372,"Ġdiffic":2373,"Ġpolice":2374,"ĠBeau":2375,"Ġutter":2376,"Cosette":2377,"af":2378,"Ġnam":2379,"Ġru":2380,"ager":2381,"Ġago":2382,"ourage":2383,"Ġcomplete":2384,"Ġstopped":2385,"Ġaston":2386,"Come":2387,"des":2388,"Ġmass":2389,"enance":2390,"Ġdeck":2391,"Ġlearn":2392,"Ġspot":2393,"aval":2394,"Ġhorse":2395,"ms":2396,"itch":2397,"ative":2398,"ĠabbÃ©":2399,"Ġsays":2400,"Ġpleasure":2401,"off":2402,"ague":2403,"ccess":2404,"Ġresumed":2405,"Ġtrees":2406,"Ġwalked":2407,"Ġbroken":2408,"An":2409,"Is":2410,"ieu":2411,"Ġjud":2412,"attle":2413,"IN":2414,"bit":2415,"time":2416,"antly":2417,"Ġking":2418,"rance":2419,"Ġstranger":2420,"could":2421,"ience":2422,"ĠâĢĻ":2423,"Ġrich":2424,"Ġneither":2425,"Ġslow":2426,"Ġhorses":2427,"Ġhist":2428,"Ġdoctor":2429,"Ġdarkness":2430,"ek":2431,"Ġsqu":2432,"oul":2433,"ays":2434,"Ġseized":2435,"Ġdev":2436,"Ġclear":2437,"enormand":2438,"illenormand":2439,"ters":2440,"Ġconst":2441,"ounds":2442,"Ġshar":2443,"Ġdirect":2444,"Ġmod":2445,"Ġcoll":2446,"theless":2447,"ians":2448,"cont":2449,"dle":2450,"Ġsens":2451,"Ġmine":2452,"Ġfilled":2453,"Ġcand":2454,"Ġcry":2455,"cely":2456,"Ġalthough":2457,"ze":2458,"Ġaf":2459,"Ġdel":2460,"ilt":2461,"ĠCaptain":2462,"ĠJon":2463,"formed":2464,"Ġcommand":2465,"ĠStubb":2466,"Ġeat":2467,"Ġdistance":2468,"ounced":2469,"ries":2470,"Ġpresence":2471,"Ġpurpose":2472,"gu":2473,"Ġed":2474,"ically":2475,"Ġimmediately":2476,"Ġprec":2477,"Ġpeculiar":2478,"Ġpray":2479,"Ġduty":2480,"One":2481,"ishes":2482,"Ġbig":2483,"Ġmill":2484,"Ġlaid":2485,"vere":2486,"ngth":2487,"volution":2488,"pres":2489,"Ġwished":2490,"Ġfair":2491,"asure":2492,"Ġbusiness":2493,"bor":2494,"io":2495,"low":2496,"whe":2497,"Ġes":2498,"Ġcra":2499,"ature":2500,"Ġstone":2501,"Ġshut":2502,"ailed":2503,"Ġpretty":2504,"ts":2505,"Ġseated":2506,"itten":2507,"ondon":2508,"ĠGavroche":2509,"fortun":2510,"Ġpeace":2511,"Ġslight":2512,"Ġstanding":2513,"Ġcab":2514,"Ġcrow":2515,"Ġves":2516,"Ġdisappeared":2517,"Ġinstead":2518,"ibly":2519,"Ġtravell":2520,"Ġsingle":2521,"Ġformer":2522,"Ġreply":2523,"Ġsuppose":2524,"Ġhardly":2525,"carecrow":2526,"mn":2527,"Ġband":2528,"Ġmotion":2529,"ĠMademoiselle":2530,"antine":2531,"ressing":2532,"Ġused":2533,"Ġmurm":2534,"Ġsitu":2535,"Ġvessel":2536,"fess":2537,"ips":2538,"Ġlater":2539,"Ġforward":2540,"Ġblue":2541,"Ġdespair":2542,"Ġdemand":2543,"!âĢĶ":2544,"inci":2545,"Ġfig":2546,"ching":2547,"thr":2548,"again":2549,"ishment":2550,"Ġprep":2551,"ĠĠĠĠĠĠĠĠĠĠĠĠĠĠĠĠ":2552,"Ġperfectly":2553,"_,":2554,"car":2555,"Ġfre":2556,"aud":2557,"ĠMont":2558,"should":2559,"Ġtalk":2560,"hileas":2561,"Val":2562,"Ġ2":2563,"Ġtried":2564,"Ġhop":2565,"ĠInd":2566,"Ġere":2567,"Ġdef":2568,"Ġsole":2569,"aped":2570,"Ġboy":2571,"Ġfurther":2572,"wise":2573,"ony":2574,"irty":2575,"ĠMaximilian":2576,"ified":2577,"Ã©e":2578,"Ġdrawing":2579,"Ġchange":2580,"Ġservice":2581,"Ġexpression":2582,"cr":2583,"house":2584,"Ġfurn":2585,"urch":2586,"Ġplan":2587,"Ġune":2588,"Ġperm":2589,"Ġperceived":2590,"Ġrepeated":2591,"?âĢĶ":2592,"than":2593,"inary":2594,"Ġsac":2595,"iment":2596,"uture":2597,"Ġmel":2598,"Ġdoing":2599,"ĠWhy":2600,"Ġdisp":2601,"Ġprot":2602,"Ġaccept":2603,"bray":2604,"Ġchance":2605,"Ġshadow":2606,"ĠFauchelevent":2607,"Ġjourney":2608,"Be":2609,"For":2610,"ism":2611,"Ġtop":2612,"anch":2613,"Ġdecl":2614,"usion":2615,"after":2616,"eav":2617,"olute":2618,"Ġopin":2619,"Ġteeth":2620,"Ġservant":2621,"Ã¢teau":2622,"hood":2623,"Ġmakes":2624,"ades":2625,"Ġdeal":2626,"osing":2627,"Ġrock":2628,"Ġusual":2629,"Ġdesire":2630,"Ġspeaking":2631,"bar":2632,"oes":2633,"iting":2634,"Ġpaid":2635,"aching":2636,"live":2637,"before":2638,"Ġpassing":2639,"Ġcompan":2640,"ny":2641,"inner":2642,"Ġmaj":2643,"Ġcovered":2644,"Ġforget":2645,"Ġmem":2646,"pping":2647,"ĠLet":2648,"Ġchair":2649,"said":2650,"isto":2651,"Ġlatter":2652,"icated":2653,"ously":2654,"Ġdifferent":2655,"Ġbreath":2656,"Ġcircumst":2657,"Ġtry":2658,"Ġwit":2659,"Ġdread":2660,"leg":2661,"oman":2662,"Ġself":2663,"Ġexact":2664,"Ġneigh":2665,"Ġbeginning":2666,"cle":2667,"reg":2668,"Ġinqu":2669,"Ġlady":2670,"sequ":2671,"Ġemp":2672,"iration":2673,"Ġstory":2674,"Ġleg":2675,"Ġcoff":2676,"Ġbaron":2677,"Ġfeeling":2678,"Ġsociety":2679,"Mon":2680,"pter":2681,"two":2682,"Ġball":2683,"raid":2684,"Ġblind":2685,"pon":2686,"ron":2687,"Ġthick":2688,"ĠMercÃ©dÃ¨s":2689,"pend":2690,"ĠLondon":2691,"Ġprevent":2692,"Ġapart":2693,"Ġharpo":2694,"Ġoccur":2695,"ĠBeauchamp":2696,"iny":2697,"illes":2698,"Ġlived":2699,"ellow":2700,"erted":2701,"ĠGillenormand":2702,"place":2703,"racter":2704,"Ġremember":2705,"Ġbottom":2706,"look":2707,"Ġfresh":2708,"alled":2709,"Ġallow":2710,"Ġexpect":2711,"ĠWith":2712,"Elizabeth":2713,"joy":2714,"Ġought":2715,"rop":2716,"Ġsuc":2717,"Ġprev":2718,"sterious":2719,"jo":2720,"yond":2721,"only":2722,"Ġchamber":2723,"Ġbecom":2724,"Ġhappened":2725,"Ġregard":2726,"Ġbeside":2727,"Ġwine":2728,"has":2729,"osop":2730,"ĠFix":2731,"Ġcompl":2732,"perm":2733,"angu":2734,"ernand":2735,"ĠQueequeg":2736,"happy":2737,"inal":2738,"Ġcre":2739,"Ġnone":2740,"Ġlower":2741,"Ġbeheld":2742,"Ġevil":2743,"idence":2744,"Ġplain":2745,"Ġspo":2746,"Ġsimple":2747,"Ġtrans":2748,"Ġeasy":2749,"?âĢĻ":2750,"ma":2751,"Ġden":2752,"Ġarran":2753,"Ġconversation":2754,"awn":2755,"even":2756,"into":2757,"Ġmed":2758,"Ġthird":2759,"ĠScarecrow":2760,"arent":2761,"Ġloved":2762,"Ġwhales":2763,"arbuck":2764,"just":2765,"Ġmark":2766,"Ġfuture":2767,"Ġnar":2768,"iding":2769,"Ġforgot":2770,"Ġdeg":2771,"Ġvast":2772,"Ġshud":2773,"orted":2774,"ails":2775,"Ġexcellency":2776,"Ġparticular":2777,"Ã¦":2778,"Ġbell":2779,"anti":2780,"nothing":2781,"Ġpromise":2782,"little":2783,"ners":2784,"spect":2785,"yd":2786,"erable":2787,"Ġciv":2788,"Ġled":2789,"âĢĶâĢľ":2790,"Ġleaving":2791,"apole":2792,"Ġburst":2793,"St":2794,"pit":2795,"Ġcrew":2796,"set":2797,"aded":2798,"ĠMina":2799,"Ġris":2800,"ickham":2801,"char":2802,"Ġstrength":2803,"Ġsilent":2804,"Ġcondu":2805,"Ġquiet":2806,"Monsieur":2807,"ON":2808,"aly":2809,"case":2810,"rate":2811,"somet":2812,"Ġest":2813,"Ġdied":2814,"Ġmeant":2815,"Ġsoft":2816,"Ġcountenance":2817,"Ġaffection":2818,"Ġtremb":2819,"Ġprofound":2820,"ancholy":2821,"AR":2822,"ding":2823,"hor":2824,"Ġinquired":2825,"atic":2826,"ardon":2827,"Ġkill":2828,"Ġlean":2829,"Ġshout":2830,"uns":2831,"Ġremark":2832,"Here":2833,"Ġfeelings":2834,"Ġnatural":2835,"Ġuttered":2836,"Ġattempt":2837,"Ġkey":2838,"Ġcreature":2839,"Ġobserved":2840,"Ġprobably":2841,"Ġheavy":2842,"ives":2843,"oh":2844,"vis":2845,"Ġlate":2846,"Ġrend":2847,"key":2848,"Ġbrow":2849,"Ġunderstood":2850,"Ġscene":2851,"His":2852,"Ġbran":2853,"keep":2854,"Ġsuccess":2855,"ĠCour":2856,"Ġexpected":2857,"Ġcomb":2858,"Ġthinking":2859,"Ġcoat":2860,"ĠQu":2861,"Who":2862,"bet":2863,"ply":2864,"rant":2865,"Ġlab":2866,"Ġthrew":2867,"ouses":2868,"ĠHere":2869,"Ġboard":2870,"Ġmarriage":2871,"Ġconvict":2872,"tre":2873,"Ġhung":2874,"aining":2875,"essed":2876,"gel":2877,"uss":2878,"ĠLouis":2879,"berty":2880,"Ġwalk":2881,"Madame":2882,"eks":2883,"yrac":2884,"rec":2885,"Ġfle":2886,"Ġfirm":2887,"Ġtouched":2888,"Ġfifty":2889,"Ġentirely":2890,"apoleon":2891,"Ġbeyond":2892,"rib":2893,"Ġsepar":2894,"Ġsuper":2895,"ĠLa":2896,"Ġendeav":2897,"Ġplease":2898,"Ġdrink":2899,"Ġslowly":2900,"Ġhistory":2901,"Ġspect":2902,"Ġlif":2903,"Ġwhis":2904,"oodman":2905,"ollins":2906,"Ġtears":2907,"Ġdirection":2908,"Ġmidst":2909,"kes":2910,"Ġauth":2911,"Ġfing":2912,"Ġbear":2913,"Ġresemb":2914,"acing":2915,"ĠCar":2916,"Ġneck":2917,"Ġunknown":2918,"feyrac":2919,"Ġfollow":2920,"Ġgloomy":2921,"ĠDebray":2922,"ES":2923,"face":2924,"ires":2925,"inte":2926,"Ġpor":2927,"Ġpity":2928,"ett":2929,"ashion":2930,"Ġgazed":2931,"ior":2932,"Ġsn":2933,"Ġmadame":2934,"pper":2935,"ortun":2936,"ĠPl":2937,"Ġchief":2938,"ission":2939,"Ġvisible":2940,"Ġsky":2941,"field":2942,"ope":2943,"llig":2944,"terday":2945,"Ġallowed":2946,"elve":2947,"Ġafterwards":2948,"Ġlock":2949,"Ġadvanced":2950,"Ġeffort":2951,"ear":2952,"Ġsle":2953,"Ġmus":2954,"Ġlose":2955,"ainted":2956,"Ġseven":2957,"Ġdevil":2958,"ĠAfter":2959,"Ġconte":2960,"Ġexec":2961,"Ġpersons":2962,"Ġacross":2963,"fessor":2964,"occ":2965,"uish":2966,"oms":2967,"Ġthy":2968,"thought":2969,"Ġkilled":2970,"upon":2971,"Ġstraight":2972,"Ġscarcely":2973,"oured":2974,"sec":2975,"emed":2976,"onel":2977,"ĠLion":2978,"Ġwhatever":2979,"about":2980,"Ġcharacter":2981,"Ġguard":2982,"Ġgrandfather":2983,"Mor":2984,"certain":2985,"eed":2986,"Ġver":2987,"esides":2988,"Ġpun":2989,"uted":2990,"Ġforce":2991,"acked":2992,"ĠCom":2993,"osite":2994,"ĠEm":2995,"without":2996,"Ġwrite":2997,"Ġterror":2998,"Ġpresented":2999,"._--":3000,"Ġafraid":3001,"Villefort":3002,"erved":3003,"Ġbird":3004,"Ġempt":3005,"Ġnoble":3006,"ĠRe":3007,"fortune":3008,"Ġwrong":3009,"Ġstreets":3010,"Ġsuffic":3011,"Ġopinion":3012,"great":3013,"Ġcal":3014,"Ġcourage":3015,"Ġpublic":3016,"Ġeager":3017,"seless":3018,"Ġval":3019,"osity":3020,"Ġserious":3021,"Ġcommun":3022,"Ġsurprise":3023,"Ġcrowd":3024,"30":3025,"Ġincl":3026,"Ġmerely":3027,"quod":3028,"ĠBy":3029,"Ġvan":3030,"ĠPr":3031,"urning":3032,"ĠLord":3033,"Ġgover":3034,"Ġwindows":3035,"Ġwaiting":3036,"board":3037,"Ġbreakfast":3038,".,":3039,"know":3040,"Ġforced":3041,"ĠAh":3042,"Ġexperi":3043,"Ġcomfort":3044,"Ġclot":3045,"Ġrecoll":3046,"ĠStarbuck":3047,"Ġabsolute":3048,"Ġprisoner":3049,"avalc":3050,"Ġauthor":3051,"eu":3052,"Ġwarm":3053,"Ġhide":3054,"Ġpiece":3055,"see":3056,"Ġanim":3057,"usted":3058,"ĠWoodman":3059,"ondret":3060,"Ġenem":3061,"Ġtrain":3062,"mense":3063,"Ġopening":3064,"....":3065,"Ġlistened":3066,"Ġdestro":3067,"Ġobliged":3068,"avalcanti":3069,"cing":3070,"ucc":3071,"Ġmut":3072,"Ġphil":3073,"rodu":3074,"Ġmysterious":3075,"oose":3076,"ils":3077,"ested":3078,"ĠTHE":3079,"Ġproc":3080,"ĠEnjolras":3081,"Ġdescri":3082,"Ġaffair":3083,"Ġsett":3084,"Ġideas":3085,"Ġincre":3086,"ydia":3087,"dra":3088,"ĠBl":3089,"Ġspite":3090,"Ġcrime":3091,"Ġsword":3092,"ucket":3093,"Ġapproached":3094,"Ġeasily":3095,"Ġmagn":3096,",--":3097,"did":3098,"Ġthee":3099,"Ġbent":3100,"iter":3101,"Ġpull":3102,"oted":3103,"these":3104,"ĠCollins":3105,"Ġnoise":3106,"Ġspring":3107,"Ġglad":3108,"Ġfallen":3109,"ĠChÃ¢teau":3110,"AN":3111,"With":3112,"gged":3113,"heart":3114,"Ġdinner":3115,"Ġsend":3116,"ĠWho":3117,"Ġgentlemen":3118,"Your":3119,"good":3120,"gress":3121,"ini":3122,"Ġbattle":3123,"Ġpal":3124,"Ġlim":3125,"Ġancient":3126,"ulf":3127,"ĠWickham":3128,"Ġletters":3129,"ancing":3130,"Ġuneas":3131,"bb":3132,"dig":3133,"uge":3134,"zy":3135,"ences":3136,"Ġcat":3137,"asp":3138,"Ġemer":3139,"Ġconn":3140,"ĠLady":3141,"Ġstudy":3142,"Ġsingular":3143,"dist":3144,"nal":3145,"sur":3146,"Ġignor":3147,"erv":3148,"ories":3149,"acy":3150,"Ġstay":3151,"Ġsave":3152,"lig":3153,"Ġvain":3154,"Ġimport":3155,"appear":3156,"Ġmoved":3157,"Ġmelancholy":3158,"ais":3159,"pers":3160,"Ġcity":3161,"lling":3162,"Ġdressed":3163,"Ġbelow":3164,"Ġshow":3165,"ertucc":3166,"ĠRome":3167,"Ġobsc":3168,"Ġheads":3169,"Ġmonth":3170,"Ġcourt":3171,"Ġquickly":3172,"Ġmurmured":3173,"ertuccio":3174,"iant":3175,"oc":3176,"Ġwretched":3177,"enced":3178,"Ġcaused":3179,"Ġgra":3180,"esty":3181,"Ġproceed":3182,"uded":3183,"cially":3184,"Ġengaged":3185,"Monte":3186,"came":3187,"Ġcost":3188,"Ġhes":3189,"Ġnumber":3190,"owards":3191,"Ġseat":3192,"Ġvague":3193,"ĠNapoleon":3194,"ĠOF":3195,"Ġbrain":3196,"Ġtrouble":3197,"Ġwritten":3198,"eys":3199,"Ġpriest":3200,"Ġworthy":3201,"Ġspirit":3202,"Ġorders":3203,"ondrette":3204,"Good":3205,"must":3206,"sued":3207,"wind":3208,"Ġbright":3209,"Ġhabit":3210,"Ġgrief":3211,"Ġstorm":3212,"Ġsearch":3213,"ĠAb":3214,"Ġarrest":3215,"Ġtwelve":3216,"atherine":3217,"Ġwalls":3218,"Ġcharming":3219,"Ġfault":3220,"iver":3221,"Ġconvent":3222,"Ġvict":3223,"olog":3224,"ĠFernand":3225,"bered":3226,"Ġmoments":3227,"Ã¨re":3228,"Ġjustice":3229,"itary":3230,"Ġreach":3231,"illy":3232,"Ġprinci":3233,"Ġgiving":3234,"Ġsteam":3235,"Ġforest":3236,"iety":3237,"made":3238,"pond":3239,"ract":3240,"inated":3241,"Ġwide":3242,"reme":3243,"Ġsorrow":3244,"Ġfish":3245,"Ġstro":3246,"antic":3247,"Ġflowers":3248,"Ġparty":3249,"Ġcarry":3250,"Ġmisery":3251,"Ġholding":3252,"Ġevidently":3253,"oved":3254,"oup":3255,"oned":3256,"Ġpisto":3257,"Ġinn":3258,"Ġthirty":3259,"Ġasleep":3260,"acle":3261,"ĠMar":3262,"iff":3263,"Ġvill":3264,"Ġvol":3265,"Ġvoy":3266,"Ġliberty":3267,"Ġgrow":3268,"Ġspeed":3269,"Ġbitter":3270,"Ġcontrary":3271,"Ren":3272,"wr":3273,"Ġsnow":3274,"Ġbread":3275,"Ġgrew":3276,"Ġshock":3277,"ĠFl":3278,"never":3279,"Ġsmiled":3280,"racted":3281,"ĠChar":3282,"ĠProfessor":3283,"Ġemplo":3284,"Ġgovern":3285,"Saint":3286,"Ġbow":3287,"Ġfal":3288,"Ġinno":3289,"Ġgate":3290,"acc":3291,"ulty":3292,"ĠWh":3293,"ĠPhileas":3294,"Ġgrat":3295,"Ġserved":3296,"Ġcommon":3297,"Ġtender":3298,"Ġhorror":3299,"Ġwalking":3300,"Ġdeterm":3301,"ĠPequod":3302,"!âĢĻ":3303,"word":3304,"Ġsense":3305,"new":3306,"Ġpointed":3307,"Ġenjoy":3308,"Ġbeauty":3309,"Ġmovement":3310,"Ġknees":3311,"ĠJonathan":3312,"ault":3313,"foll":3314,"port":3315,"Ġaud":3316,"Ġbowed":3317,"Ġcru":3318,"Ġlangu":3319,"ĠLydia":3320,"chant":3321,"azz":3322,"Ġstarted":3323,"Ġencoun":3324,"Ġproduced":3325,"through":3326,"ee":3327,"Ġer":3328,"Ġod":3329,"ament":3330,"ctions":3331,"pecially":3332,"thur":3333,"ĠFather":3334,"reated":3335,"Ġoutside":3336,"arker":3337,"Ġbetr":3338,"Ġlighted":3339,"Ġgirls":3340,"Ġinterrupt":3341,"Ġboats":3342,"ThÃ©nardier":3343,"Ġbesides":3344,"Ġladies":3345,"such":3346,"Ġinform":3347,"tended":3348,"ĠCavalcanti":3349,"ĠEvery":3350,"ression":3351,"igned":3352,"Ġaccording":3353,"Ġphilosop":3354,"Sir":3355,"ino":3356,"Ġbound":3357,"Ġbare":3358,"Ġfold":3359,"Ġpict":3360,"child":3361,"Ġsusp":3362,"ĠFantine":3363,"rang":3364,"arer":3365,"Ġdisco":3366,"Ġhorrible":3367,"Ġmoon":3368,"Ġdescended":3369,"Where":3370,"cause":3371,"friend":3372,"give":3373,"oule":3374,"Ġmir":3375,"rill":3376,"Ġweak":3377,"Ġmarried":3378,"Ġpolit":3379,"bourg":3380,"Ġopposite":3381,"Ġoccupied":3382,"Ġsolemn":3383,"Av":3384,"Danglars":3385,"inc":3386,"Ġcart":3387,"arious":3388,"Ġyouth":3389,"acqu":3390,"Ġseek":3391,"Ġpassage":3392,"Ġattack":3393,"Ġaddress":3394,"ĠKing":3395,"Ġpapers":3396,"Ġpriv":3397,"Ġrendered":3398,"OR":3399,"ald":3400,"moment":3401,"non":3402,"rist":3403,"inite":3404,"Ġmort":3405,"Ġfashion":3406,"ste":3407,"Ġreceive":3408,"Ġaside":3409,"ulous":3410,"Ġconcl":3411,"ĠFrom":3412,"aked":3413,"cies":3414,"Ġimmense":3415,"Ġblow":3416,"izing":3417,"Ġtalking":3418,"Ġyesterday":3419,"Ġfaith":3420,"Ġwitness":3421,"By":3422,"say":3423,"isher":3424,"Ġfight":3425,"ator":3426,"tering":3427,"together":3428,"Ġknowing":3429,"ĠOz":3430,"Ġgetting":3431,"Ġhoriz":3432,"Ġmemory":3433,"Ġcivil":3434,"fall":3435,"five":3436,"hold":3437,"iosity":3438,"Ġ5":3439,"Ġid":3440,"ics":3441,"redit":3442,"uls":3443,"Ġkiss":3444,"elt":3445,"Ġsomewhat":3446,"Ġforehead":3447,"Ġstrugg":3448,"Ġdiscovered":3449,"shall":3450,"Never":3451,"nest":3452,"Ġwa":3453,"ises":3454,"Ġhid":3455,"Ġyield":3456,"ardin":3457,"isely":3458,"oubled":3459,"Ġminute":3460,"Ġevents":3461,"Ġsatisfied":3462,"Ġwishes":3463,"Ġcell":3464,"Ġtomb":3465,"Ġdare":3466,"asant":3467,"Ġet":3468,"Ġsake":3469,"ĠCol":3470,"Ġvent":3471,"ĠPer":3472,"Ġrob":3473,"Ġsurr":3474,"Ġarrival":3475,"Ġinfl":3476,"Ġbreast":3477,"Ġmentioned":3478,"Ġlearned":3479,"ĠCourfeyrac":3480,"Are":3481,"EN":3482,"Re":3483,"might":3484,"mother":3485,"tw":3486,"Ġsitting":3487,"Ġobe":3488,"seen":3489,"Ġconsequ":3490,"Ġlie":3491,"Ġanyone":3492,"aria":3493,"Ġresult":3494,"exp":3495,"Ġmarry":3496,"Ġdistur":3497,"eneral":3498,"Ġearly":3499,"Ġdrawn":3500,"Ġintellig":3501,"Ġtranqu":3502,"Ġrecognized":3503,"Ġrapidly":3504,"Ġspoken":3505,"Ġforgotten":3506,"Renaud":3507,"After":3508,"cor":3509,"first":3510,"iam":3511,"rer":3512,"Ġsought":3513,"erve":3514,"Ġhot":3515,"Ġhouses":3516,"Ġpath":3517,"lend":3518,"These":3519,"Ġstop":3520,"Ġant":3521,"ĠAli":3522,"Ġdog":3523,"ĠSome":3524,"reeable":3525,"peror":3526,"Ġoffer":3527,"Ġcurious":3528,"Ġhonest":3529,"Ġsimply":3530,"Ġdanger":3531,"Ġsituation":3532,"pse":3533,"Ġfly":3534,"Ġcoun":3535,"Ġdim":3536,"Ġhealth":3537,"âĢĶâĢĿ":3538,"Ġgoes":3539,"Ġsuffer":3540,"Ġwaited":3541,"Ġextreme":3542,"ustomed":3543,"Ġsucceeded":3544,"inst":3545,"inced":3546,"ital":3547,"Ġdress":3548,"Ġsewer":3549,"Ġrushed":3550,"Ġpron":3551,"coat":3552,"Ġexistence":3553,"Ġconcealed":3554,"fle":3555,"gy":3556,"iently":3557,"mar":3558,"Ġloud":3559,"cean":3560,"antage":3561,"Ġvirt":3562,"Ġalarm":3563,"Ġunhappy":3564,"aircase":3565,"hys":3566,"ertainly":3567,"Ġsilver":3568,"Ã©nie":3569,"ugÃ©nie":3570,"Ġnews":3571,"Ġawait":3572,"ĠEngland":3573,"Ġcondem":3574,"Ġmotionless":3575,"Ġcoffin":3576,"Ġdegree":3577,"Ġempty":3578,"THE":3579,"mpl":3580,"Ġcas":3581,"lly":3582,"Ġnine":3583,"Ġeld":3584,"ĠCatherine":3585,"apt":3586,"ption":3587,"being":3588,"Ġoffered":3589,"ouda":3590,"Ġfigure":3591,"Valentine":3592,"Ġfalse":3593,"ded":3594,"sy":3595,"Ġwon":3596,"Ġming":3597,"Ġfro":3598,"Ġhost":3599,"Ġpaused":3600,"Ġlines":3601,"Ġnoticed":3602,"think":3603,"Ġaddressed":3604,"ounce":3605,"Ġbehold":3606,"Ġriver":3607,"III":3608,"Ġcentury":3609,"ĠXV":3610,"),":3611,"back":3612,"armed":3613,"Ġgun":3614,"Ġthro":3615,"quis":3616,"ours":3617,"Ġrising":3618,"Ġenorm":3619,"Ġsmiling":3620,"Ġconscience":3621,"upid":3622,"Ġassured":3623,"Ġfinished":3624,"Ġpossessed":3625,"Albert":3626,"Ġviolent":3627,"Ġdeparture":3628,"oulev":3629,"DantÃ¨s":3630,"may":3631,"heard":3632,"omme":3633,"Ġears":3634,"Ġgay":3635,"ĠHarker":3636,"ember":3637,"Ġknowledge":3638,"Ġimm":3639,"Ġentering":3640,"Ġinstinct":3641,"Ġassist":3642,"Ġmonster":3643,"Ġdraw":3644,"Ġintrodu":3645,"Ġmistaken":3646,"Ġprepared":3647,"Ġexactly":3648,"aste":3649,"ayd":3650,"Ġnotice":3651,"Ġsav":3652,"ieces":3653,"Ġthrown":3654,"arily":3655,"Ġgreater":3656,"Ġevident":3657,"Ġfrightful":3658,"Ġfavor":3659,"Ġsharp":3660,"IS":3661,"much":3662,"rep":3663,"Ġsli":3664,"hall":3665,"Ġfun":3666,"Ġdouble":3667,"iring":3668,"Ġweek":3669,"Ġsaved":3670,"idered":3671,"Ġchurch":3672,"Ġreader":3673,"Ġwatching":3674,"panied":3675,"Ġpenet":3676,"ortunity":3677,"Javert":3678,"hum":3679,"Ġsch":3680,"itz":3681,"itions":3682,"urs":3683,"Ġforty":3684,"those":3685,"ĠCome":3686,"retch":3687,"Ġinsur":3688,"Ġpurcha":3689,"Ġcheer":3690,"Ġbroad":3691,"Ġmiddle":3692,"Ġsurprised":3693,"aydÃ©e":3694,"From":3695,"phant":3696,"zz":3697,"Ġmiss":3698,"Ġfield":3699,"Ġcustom":3700,"Ġtoler":3701,"Ġdying":3702,"Ġph":3703,"ills":3704,"Ġshook":3705,"Ġlives":3706,"Ġquitted":3707,"Ġtrust":3708,"Ġwrote":3709,"ceiving":3710,"Ġwanted":3711,"Ġgaze":3712,"Ġdecided":3713,"Ġaccompl":3714,"ohn":3715,"Have":3716,"pet":3717,"Ġtree":3718,"Ġmal":3719,"Ġdart":3720,"asped":3721,"Ġisland":3722,"rose":3723,"ĠBertuccio":3724,"Ġfeared":3725,"ĠDr":3726,"Ġproper":3727,"Ġsplend":3728,"ĠJondrette":3729,"cial":3730,"meric":3731,"expected":3732,"comm":3733,"Ġconceal":3734,"Ġdifficult":3735,"something":3736,"MÃ©":3737,"ium":3738,"pal":3739,"Ġbore":3740,"Ġgro":3741,"road":3742,"chief":3743,"Ġrid":3744,"ĠPont":3745,"Ġpreced":3746,"Ġgreatest":3747,"Ġassure":3748,"Ġfamil":3749,"Ġfifteen":3750,"Ġwatched":3751,"Ġespecially":3752,"Ġfrequ":3753,"Ġvoyage":3754,"Ġaunt":3755,"Ġavo":3756,"reet":3757,"Ġbeat":3758,"Ġasce":3759,"Ġdeli":3760,"Ġdelic":3761,"geois":3762,"Ġamaz":3763,"Ġproof":3764,"Ġthank":3765,"Ġpleased":3766,"door":3767,"**":3768,"AT":3769,"gin":3770,"ius":3771,"mor":3772,"Ġpure":3773,"Ġposition":3774,"Ġpardon":3775,"Ġheight":3776,"Ġlan":3777,"otte":3778,"quest":3779,"Ġrise":3780,"unk":3781,"ĠGu":3782,"udden":3783,"Ġreport":3784,"Ġcrown":3785,"Ġdirected":3786,"Ġinstantly":3787,"rigny":3788,"Ġshadows":3789,"ĠArthur":3790,"Ġoccurred":3791,"01":3792,"een":3793,"found":3794,"iod":3795,"ns":3796,"oot":3797,"uel":3798,"Ġdawn":3799,"ashed":3800,"icious":3801,"Ġbeast":3802,"ĠMay":3803,"ushing":3804,"Ġfever":3805,"Ġplaces":3806,"Ġthrust":3807,"Ġcompany":3808,"Ġcoach":3809,"Ġchanged":3810,"Ġpossession":3811,"Ġcompanion":3812,"Ġcircumstances":3813,"Ġneighbor":3814,"Avrigny":3815,"MÃ©ran":3816,"poss":3817,"Ġtong":3818,"reed":3819,"Ġban":3820,"omb":3821,"seemed":3822,"Ġyellow":3823,"Ġrevol":3824,"rif":3825,"Ġsafe":3826,"pel":3827,"three":3828,"Ġshore":3829,"Ġamid":3830,"Ġperiod":3831,"Ġgreatly":3832,"Ġmiserable":3833,"Ġdepths":3834,"work":3835,"arseilles":3836,"Ġfancy":3837,"cal":3838,"Ġtall":3839,"Ġrequired":3840,"urope":3841,"Ġshoulders":3842,"Ġdistinct":3843,"Ġforms":3844,"Ġkindness":3845,"Ġquestions":3846,"Ġresolved":3847,"velop":3848,"Ġemotion":3849,"_.":3850,"nat":3851,"oon":3852,"Ġwaves":3853,"Ġmast":3854,"Ġthin":3855,"Ġthunder":3856,"ribut":3857,"rified":3858,"Ġstation":3859,"pered":3860,"ĠĠĠ":3861,"Ġshowed":3862,"ĠWill":3863,"Ġrope":3864,"hens":3865,"ivid":3866,"Ġarmy":3867,"Ġhole":3868,"Ġpursu":3869,"ibility":3870,"Ġfalling":3871,"Ġcarefully":3872,"Ġofficer":3873,"Ġnamed":3874,"Ġnames":3875,"Ġastonishment":3876,"Ġenormous":3877,"Certainly":3878,"Passepartout":3879,"hus":3880,"itable":3881,"Ġpier":3882,"Ġinhab":3883,"ĠSp":3884,"ĠSir":3885,"Ġshoes":3886,"Ġroof":3887,"Ġchim":3888,"Ġdiam":3889,"perior":3890,"Ġexcellent":3891,"Ġanxious":3892,"Ġcabin":3893,"Ġprocure":3894,"Bec":3895,"OU":3896,"ech":3897,"oe":3898,"Ġmil":3899,"Ġpop":3900,"athe":3901,"Ġrever":3902,"Ġaspect":3903,"Ġnote":3904,"ift":3905,"ĠSperm":3906,"Ġlegs":3907,"range":3908,"Ġproceeded":3909,"Ġspread":3910,"Ġsouls":3911,"Ġtalked":3912,"Ġescaped":3913,"Ġ181":3914,"Ġrunning":3915,"Ġdifficulty":3916,"Ġporter":3917,"Ġenemy":3918,"Ind":3919,"loo":3920,"uished":3921,"yal":3922,"Ġtru":3923,"Ġwore":3924,"Ġsor":3925,"Ġmiles":3926,"Ġfate":3927,"Ġcredit":3928,"still":3929,"Ġstaircase":3930,"ĠBr":3931,"Ġproject":3932,"Ġpromised":3933,"Ġdropped":3934,"Ġattend":3935,"whel":3936,"Ġhideous":3937,"Ġmingled":3938,"Because":3939,"four":3940,"pri":3941,"ture":3942,"ison":3943,"Ġpressed":3944,"ession":3945,"Ġyours":3946,"Ġwhence":3947,"ĠLong":3948,"Ġunf":3949,"ĠJust":3950,"ples":3951,"ordinary":3952,"Ġconscious":3953,"Ġsuffered":3954,"Ġsailor":3955,"ĠChapter":3956,"ificent":3957,"Ġspirits":3958,"oulevard":3959,"Ar":3960,"ares":3961,"ux":3962,"Ġwol":3963,"Ġben":3964,"Ġmour":3965,"Ġcou":3966,"Ġdom":3967,"atures":3968,"Ġreve":3969,"Ġrelie":3970,"acious":3971,"ĠCl":3972,"anted":3973,"ĠTin":3974,"Ġadvent":3975,"Ġentrance":3976,"izzy":3977,"Ġsmoke":3978,"aintance":3979,"Ġindif":3980,"Ġequal":3981,"gi":3982,"Ġwed":3983,"Ġsick":3984,"half":3985,"isc":3986,"Ġble":3987,"Ġbrave":3988,"Ġmot":3989,"Ġfier":3990,"step":3991,"Ġgar":3992,"ette":3993,"ĠMag":3994,"antucket":3995,"Ġamount":3996,"Ġourselves":3997,"shop":3998,"Ġhandsome":3999,"Ġearnest":4000,"Ġsupper":4001,"Ġadvantage":4002,"Ġlisten":4003,"Ġmeeting":4004,"Ġbuild":4005,"Ġbaroness":4006,"eff":4007,"vation":4008,"ision":4009,"oward":4010,"adam":4011,"ulated":4012,"Ġexha":4013,"Ġvarious":4014,"Ġshot":4015,"Ġimper":4016,"order":4017,"Ġassass":4018,"Ġregret":4019,"Ġbelieved":4020,"blanc":4021,"ĠChrist":4022,"ĠUn":4023,"Ġshudder":4024,"cast":4025,"ses":4026,"Ġtakes":4027,"Ġmater":4028,"Ġpi":4029,"uses":4030,"lies":4031,"ĠWhere":4032,"Ġnose":4033,"Ġworse":4034,"Ġprogress":4035,"Ġunfortun":4036,"Ġspace":4037,"arest":4038,"Ġpride":4039,"Ġscr":4040,"Ġdisting":4041,"Ġsocial":4042,"Ġlaughing":4043,"Ġfatal":4044,"Ġsquare":4045,"Ġmillions":4046,"looking":4047,"Ġconduct":4048,"keeper":4049,"Morrel":4050,"Fran":4051,"HI":4052,"gar":4053,"sub":4054,"yr":4055,"Ġaction":4056,"Ġorig":4057,"Ġfaint":4058,"Ġlod":4059,"ams":4060,"Ġrain":4061,"ĠWitch":4062,"Ġneg":4063,"ĠNever":4064,"Ġgrass":4065,"Ġdoors":4066,"Ġdistant":4067,"Ġmisfortune":4068,"Ġclouds":4069,"Ġnarrow":4070,"Ġclothes":4071,"uddenly":4072,"ker":4073,"last":4074,"mit":4075,"pin":4076,"since":4077,"Ġfail":4078,"Ġhig":4079,"Ġphys":4080,"attered":4081,"Ġhall":4082,"stru":4083,"urity":4084,"Ġuseless":4085,"oreover":4086,"isten":4087,"Ġsprang":4088,"ĠEugÃ©nie":4089,"Ġdeserted":4090,"Ġproud":4091,"aterloo":4092,"Ġregular":4093,"ĠYour":4094,"Ġstraw":4095,"Ġsoldier":4096,"Ġwaters":4097,"Ġbecomes":4098,"Ġsettled":4099,"cher":4100,"down":4101,"Ġocean":4102,"Ġhero":4103,"Ġbeings":4104,"using":4105,"ĠBesides":4106,"Ġleaves":4107,"ĠWas":4108,"Ġknock":4109,"Ġaband":4110,"ĠEurope":4111,"ĠJohn":4112,"ĠNew":4113,"feel":4114,"Ġcompre":4115,"versed":4116,"Ġconfidence":4117,"Ġextra":4118,"Ġmistake":4119,"Ġtouch":4120,"Ġwonderful":4121,"Nothing":4122,"Ġjudge":4123,"Ġapartment":4124,"Ġlanguage":4125,"Ġdiamond":4126,"cas":4127,"Ġtail":4128,"Ġsin":4129,"Ġfit":4130,"Ġham":4131,"idable":4132,"rived":4133,"ilar":4134,"ĠAouda":4135,"Ġwholly":4136,"geon":4137,"Ġring":4138,"ument":4139,"Ġdesign":4140,"Ġrace":4141,"ometimes":4142,"Ġattent":4143,"Ġcorpse":4144,"Ġopportunity":4145,"viathan":4146,"conscious":4147,"ĠSeward":4148,"Ġanxiety":4149,"Every":4150,"Go":4151,"book":4152,"ghed":4153,"oor":4154,"past":4155,"rated":4156,"hel":4157,"Ġwounded":4158,"Ġwinter":4159,"Ġbour":4160,"Ġmonsieur":4161,"Ġfet":4162,"Ġpall":4163,"âĢľ_":4164,"iments":4165,"Ġones":4166,"Ġrender":4167,"adually":4168,"etto":4169,"unch":4170,"Ġunless":4171,"ĠNor":4172,"Ġsmo":4173,"Ġaccustomed":4174,"Ġbegun":4175,"young":4176,"Ġlooks":4177,"Ġadvance":4178,"Ġcuriosity":4179,"ampa":4180,"Ġgloom":4181,"Ġrecognize":4182,"Ġcontempl":4183,"Ġsufficient":4184,"Ġhorizon":4185,"Ġsorry":4186,"02":4187,"ien":4188,"iable":4189,"nce":4190,"whale":4191,"Ġtim":4192,"asing":4193,"entered":4194,"ĠMother":4195,"Ġseas":4196,"ilst":4197,"ĠAmeric":4198,"raph":4199,"ests":4200,"Ġcontained":4201,"ival":4202,".âĢĻâĢĿ":4203,"Ġcrossed":4204,"Ġaccompanied":4205,"Ġgalleys":4206,"ĠBaron":4207,"Ġimagine":4208,"Ġdemanded":4209,"Ġtrembling":4210,"Ġabsolutely":4211,"Ġinflu":4212,"Ġtask":4213,"Ġsous":4214,"onap":4215,"Ġfisher":4216,"Ġcatch":4217,"ese":4218,"Ġdust":4219,"Ġhunt":4220,"Ġsuperior":4221,"Ġlies":4222,"ĠPet":4223,"ĠGree":4224,"Ġthanks":4225,"Ġbrid":4226,"Ġapparent":4227,"Ġpossibly":4228,"Ġchest":4229,"Ġdoubtless":4230,"Ġignorant":4231,"mis":4232,"mind":4233,"rain":4234,"ĠYes":4235,"Ġsides":4236,"Ġoil":4237,"Ġbull":4238,"Ġcott":4239,"Ġpet":4240,"Ġlying":4241,"imate":4242,"Ġstar":4243,"Ġstupid":4244,"Ġprove":4245,"Ġproved":4246,"Ġcountess":4247,"ext":4248,"Ġinspect":4249,"Ġservants":4250,"eyes":4251,"Ġmeaning":4252,"Ġsisters":4253,"Ġreality":4254,"Ġwhaling":4255,"Ġremembered":4256,"Ġdirectly":4257,"contin":4258,"Ġharpoone":4259,"euf":4260,"Of":4261,"away":4262,"cour":4263,"kind":4264,"nds":4265,"Ġbold":4266,"Ġclo":4267,"Ġrevolution":4268,"ĠTe":4269,"Ġknife":4270,"Ġque":4271,"Ġflag":4272,"Ġlovely":4273,"poch":4274,"vidence":4275,"Ġbroke":4276,"Ġinquir":4277,"Ġarranged":4278,"Ġslept":4279,"del":4280,"dep":4281,"gment":4282,"take":4283,"towards":4284,"Ġbra":4285,"once":4286,"Ġhither":4287,"Ġhang":4288,"acity":4289,"Ġmyst":4290,"top":4291,"aker":4292,"Ġuncle":4293,"fulness":4294,"Ġpersu":4295,"Ġwriting":4296,"Ġintended":4297,"Ġfortun":4298,"Ġgenerally":4299,"ĠYet":4300,"Ġangry":4301,"Ġbanker":4302,"Ġcompletely":4303,"Ġcandle":4304,"Ġdetermined":4305,"Ex":4306,"God":4307,"Very":4308,"uce":4309,"Ġ4":4310,"Ġalive":4311,"Ġoper":4312,"Ġetern":4313,"Ġrelig":4314,"amed":4315,"ames":4316,"ĠAre":4317,"ĠHad":4318,"ĠHaydÃ©e":4319,"Ġvo":4320,"Ġsperm":4321,"ĠNantucket":4322,"suff":4323,"Ġhaste":4324,"ĠLeblanc":4325,"Ġhopes":4326,"Ġestab":4327,"between":4328,"Ġthroat":4329,"cond":4330,"gan":4331,"pol":4332,"ral":4333,"ule":4334,"Ġborn":4335,"Ġpaces":4336,"ication":4337,"Ġepoch":4338,"Ġgod":4339,"Ġweep":4340,"ousin":4341,"Ġshoulder":4342,"Ġremains":4343,"Ġobst":4344,"Ġafford":4345,"Ġaware":4346,"Ġsailors":4347,"Ġceased":4348,"Ġsymp":4349,"Ġacquainted":4350,"Ġdelay":4351,"Ġtraveller":4352,"Ġbranches":4353,"bur":4354,"wed":4355,"orney":4356,"Ġpit":4357,"Ġlamp":4358,"stairs":4359,"Ġgrace":4360,"Ġweight":4361,"agues":4362,"Ġrolled":4363,"oft":4364,"ovel":4365,"Ġoverwhel":4366,"ollow":4367,"Ġprefer":4368,"Ġoffice":4369,"aws":4370,"Ġsupposed":4371,"Ġfamous":4372,"Ġsimilar":4373,"asket":4374,"Ġcreatures":4375,"Ġwaist":4376,"Ġlantern":4377,"sl":4378,"uil":4379,"Ãª":4380,"orous":4381,"Ġhearing":4382,"icle":4383,"Ġbearing":4384,"stit":4385,"Ġgen":4386,"Ġstat":4387,"Ġstir":4388,"ĠMarseilles":4389,"Ġweather":4390,"Ġangel":4391,"olt":4392,"Ġjew":4393,"ability":4394,"Ġrepl":4395,"Ġretired":4396,"chair":4397,"Ġtelling":4398,"Ġinterval":4399,"ugust":4400,"Ġfinally":4401,"Ġelephant":4402,"Ġdeeply":4403,"Ġmagist":4404,"Ġexamined":4405,"Ġprotect":4406,"Ġbourgeois":4407,".âĢĶ":4408,"life":4409,"oli":4410,"Ġwound":4411,"Ġwond":4412,"ombre":4413,"Ġgest":4414,"ational":4415,"Ġrang":4416,"ables":4417,"necess":4418,"Ġclass":4419,"many":4420,"Ġremoved":4421,"Ġcomposed":4422,"conf":4423,"Ġlightning":4424,"Ġappears":4425,"Ġhearts":4426,"Ġputting":4427,"Ġguide":4428,"Ġreading":4429,"Ġinfinite":4430,"Ġanguish":4431,"Ġbooks":4432,"Ġmajor":4433,"Ġshouted":4434,"Ġfingers":4435,"Ġbirds":4436,"ĠFlask":4437,"Ġinterrupted":4438,"Franz":4439,"TH":4440,"lotte":4441,"rand":4442,"Ġice":4443,"iture":4444,"Ġfood":4445,"Ġfond":4446,"Ġdull":4447,"Ġdared":4448,"Ġease":4449,"enth":4450,"Ġwhilst":4451,"rier":4452,"ilty":4453,"ify":4454,"ĠBour":4455,"osure":4456,"ĠFaria":4457,"umult":4458,"rank":4459,"Ġspark":4460,"ofty":4461,"Ġotherwise":4462,"ĠItaly":4463,"Ġdispl":4464,"Ġrage":4465,"Ġpract":4466,"Ġmarked":4467,"escrib":4468,"Ġillum":4469,"Ġabsor":4470,"Ġburied":4471,"gging":4472,"Ġcentre":4473,"faction":4474,"Ġcombat":4475,"Ġinformation":4476,"Ġvirtue":4477,";âĢĶ":4478,"LE":4479,"sk":4480,"wal":4481,"having":4482,"Ġbod":4483,"onor":4484,"Ġfra":4485,"orough":4486,"Ġhun":4487,"vell":4488,"Ġgently":4489,"enter":4490,"epte":4491,"Ġspent":4492,"Ġrepres":4493,"ford":4494,"Ġflight":4495,"aughters":4496,"standing":4497,"Ġgives":4498,"Ġstepped":4499,"ground":4500,"appo":4501,"Ġhastily":4502,"ĠNothing":4503,"Ġimportant":4504,"ardiner":4505,"Ġsurrounded":4506,"Ġsavage":4507,"aved":4508,"ivers":4509,"Ġtaste":4510,"Ġaid":4511,"Ġarose":4512,"eds":4513,"rois":4514,"Ġstairs":4515,"ppino":4516,"Ġrad":4517,"ĠFe":4518,"ĠPhil":4519,"ĠDid":4520,"igne":4521,"venge":4522,"agger":4523,"Ġagony":4524,"Ġlikely":4525,"ĠItal":4526,"mercy":4527,",âĢĶâĢľ":4528,"Ġsubl":4529,"passed":4530,"Ġsoldiers":4531,"Ġruin":4532,"Ġerect":4533,"Ġquietly":4534,"ĠAbbÃ©":4535,"Ġcondemned":4536,"Ġelder":4537,"cur":4538,"rass":4539,"Ġsink":4540,"Ġbrig":4541,"Ġca":4542,"oto":4543,"Ġgained":4544,"Ġstern":4545,"Ġmere":4546,"amb":4547,"tell":4548,"ĠCan":4549,"ĠWest":4550,"Ġplun":4551,"ĠGood":4552,"cles":4553,"Ġimpat":4554,"Ġarrive":4555,"Ġconvinced":4556,"Ġresolution":4557,"Ġpistol":4558,"Ġpronounced":4559,"Ġcomprehe":4560,"eptember":4561,"Father":4562,"OO":4563,"iance":4564,"zen":4565,"Ġty":4566,"Ġmate":4567,"Ġpick":4568,"Ġpause":4569,"Ġpounds":4570,"almost":4571,"vering":4572,"oles":4573,"Ġprovid":4574,"abeuf":4575,"Ġunable":4576,"Ġpassion":4577,"Ġthrow":4578,"Ġimpro":4579,"Ġhappen":4580,"Ġdistr":4581,"Ġrooms":4582,"Ġlistening":4583,"Ġdreadful":4584,"Ġmagnificent":4585,"Ġvictim":4586,"Ġhidden":4587,"twenty":4588,"Did":4589,"Paris":4590,"While":4591,"ike":4592,"por":4593,"six":4594,"Ġav":4595,"Ġburning":4596,"esh":4597,"irl":4598,"Ġstock":4599,"ĠCon":4600,"astic":4601,"oses":4602,"ospit":4603,"Ġje":4604,"Ġroyal":4605,"Ġentreat":4606,"Ġattached":4607,"ĠThus":4608,"comp":4609,"Ġcommitted":4610,"Ġexpressed":4611,"Ġinsp":4612,"boat":4613,"Ġengage":4614,"Ġmounted":4615,"Ġbuilt":4616,"ĠIndian":4617,"Ġprevious":4618,"Ġflew":4619,"Ġincreased":4620,"Ġinnocent":4621,"ĠColonel":4622,"morning":4623,"col":4624,"hundred":4625,"ias":4626,"jud":4627,"lar":4628,"mount":4629,"Ġdue":4630,"Ġpave":4631,"Ġpair":4632,"Ġpieces":4633,"verse":4634,"ĠMadam":4635,"Ġfeatures":4636,"ĠWaterloo":4637,"Ġalarmed":4638,"loved":4639,"Ġpoison":4640,"ruction":4641,"Ġdesired":4642,"Ġconfess":4643,"alming":4644,"Ġabsence":4645,"However":4646,"Ġgazing":4647,"themselves":4648,"Ġwooden":4649,"Alas":4650,"Ġconsiderable":4651,"Ġrequire":4652,"Ġofficers":4653,"Ġbelonged":4654,"Ġastonished":4655,"Ġexperienced":4656,"Ġuneasy":4657,"Ġbench":4658,"Ġwedding":4659,"Fau":4660,"Just":4661,"Will":4662,"gers":4663,"lted":4664,"lished":4665,"piece":4666,"son":4667,"rection":4668,"eries":4669,"Ġclock":4670,"Ġdign":4671,"Ġdazz":4672,"Ġlord":4673,"Ġluck":4674,"Ġthreat":4675,"adv":4676,"irable":4677,"Ġnotary":4678,"acles":4679,"Ġstars":4680,"tend":4681,"Ġconve":4682,"Ġmanners":4683,"Ġvig":4684,"asted":4685,"uments":4686,"Ġener":4687,"manuel":4688,"Ġeverywhere":4689,"ints":4690,"Ġconsidered":4691,"Ġcapable":4692,"arnasse":4693,"Ġsleeping":4694,"Ġmatters":4695,"Ġtouching":4696,"appro":4697,"umbled":4698,"Ġrequest":4699,"everything":4700,"Ġconcerning":4701,"Ġbecoming":4702,"Ġvillage":4703,"Ġtongue":4704,"Indeed":4705,"Than":4706,"cis":4707,"dom":4708,"gain":4709,"law":4710,"ann":4711,"Ġlin":4712,"Ġstuff":4713,"Ġstones":4714,"thousand":4715,"Ġextended":4716,"Ġshop":4717,"Ġcomr":4718,"ĠGardiner":4719,"Ġspout":4720,"lope":4721,"Ġresist":4722,"ization":4723,"Ġaffairs":4724,"avern":4725,"ferre":4726,"Ġexchan":4727,"ĠHowever":4728,"Ġhatred":4729,"Ġdreams":4730,"Ġfatig":4731,"Ġundert":4732,"Ġsacred":4733,"Ġleaning":4734,"AS":4735,"Per":4736,"name":4737,"parnasse":4738,"tal":4739,"wood":4740,"yl":4741,"Ġwarn":4742,"enge":4743,"Ġdaughters":4744,"Ġloss":4745,"Ġlofty":4746,"Ġgend":4747,"ĠTheir":4748,"rab":4749,"rap":4750,"ourite":4751,"Ġordered":4752,"erty":4753,"ode":4754,"beferre":4755,"perate":4756,"forth":4757,"Ġcontent":4758,"Ġcoast":4759,"Ġsuffering":4760,"hole":4761,"supp":4762,"Ġsummer":4763,"bourn":4764,"Ġmountains":4765,"Ġreflection":4766,"Ġsplendid":4767,"Ġchimney":4768,"igneur":4769,"Le":4770,"Mademoiselle":4771,"met":4772,"sat":4773,"wild":4774,"Ġ3":4775,"Ġwretch":4776,"Ġsigh":4777,"Ġbrill":4778,"Ġfer":4779,"Ġfru":4780,"aries":4781,"Ġinj":4782,"Ġlest":4783,"Ġgle":4784,"Ġthread":4785,"urally":4786,"aches":4787,"umn":4788,"Ġamb":4789,"Ġmayor":4790,"Ġobtain":4791,"Ġparts":4792,"Ġcarrying":4793,"Ġharm":4794,"comple":4795,"Ġtear":4796,"Ġadmit":4797,"ĠOnly":4798,"Ġapproach":4799,"Ġexisted":4800,"Ġangle":4801,"Ġreflected":4802,"Ġdivine":4803,"break":4804,"Ġdeclared":4805,"Ġsteamer":4806,"ĠWhite":4807,"Ġgratitude":4808,"Ġprivate":4809,"hind":4810,"lord":4811,"mag":4812,"olet":4813,"rous":4814,"sing":4815,"woman":4816,"Ġwings":4817,"Ġoh":4818,"oring":4819,"arked":4820,"Ġhence":4821,"vet":4822,"ĠAm":4823,"ĠSeptember":4824,"osit":4825,"cked":4826,"cknow":4827,"Ġunexpected":4828,"Ġretreat":4829,"Ġsmell":4830,"icks":4831,"Ġflesh":4832,"Ġterms":4833,"Ġcrim":4834,"Ġrefuse":4835,"Ġfully":4836,"Ġcurtain":4837,"Ġcheeks":4838,"Ġdrop":4839,"Ãīpin":4840,"Ġacquaintance":4841,"Ġrisk":4842,"interest":4843,"Ġeagerly":4844,"Ġdestroy":4845,"Ġsuspic":4846,"Ġinfluence":4847,"De":4848,"Wh":4849,"leness":4850,"mble":4851,"went":4852,"Ġbill":4853,"Ġmult":4854,"Ġcup":4855,"Ġcousin":4856,"anation":4857,"Ġpil":4858,"Ġnin":4859,"seigneur":4860,"Ġsevere":4861,"ĠSuch":4862,"ĠSpan":4863,"Ġexceed":4864,"Ġships":4865,"unning":4866,"Ġworking":4867,"Ġabrupt":4868,"itty":4869,"ĠJu":4870,"udes":4871,"Ġgradually":4872,"Ġrepro":4873,"conte":4874,"Ġappre":4875,"Ġsorts":4876,"Ġminister":4877,"Ġformidable":4878,"Ġelb":4879,"box":4880,"Ġlaughed":4881,"Ġexample":4882,"Ġheavens":4883,"Ġjoined":4884,"Ġdangerous":4885,"present":4886,"Ġemployed":4887,"Ġschool":4888,"rifice":4889,"ĠItalian":4890,"Ãīpinay":4891,"master":4892,"rors":4893,"uzz":4894,"vre":4895,"yss":4896,"Ġtit":4897,"Ġacknow":4898,"Ġbree":4899,"Ġcook":4900,"Ġcord":4901,"Ġdwell":4902,"Ġhy":4903,"Ġpack":4904,"irth":4905,"Ġsty":4906,"ulie":4907,"estic":4908,"ĠToto":4909,"aps":4910,"ateful":4911,"Ġplayed":4912,"ĠGreat":4913,"open":4914,"white":4915,"shot":4916,"incey":4917,"compl":4918,"Ġdifference":4919,"Ġfacts":4920,"Ġextrem":4921,"Ġcharge":4922,"Ġtorn":4923,"Ġprecisely":4924,"Ġhoped":4925,"Ġbranch":4926,"Ġlifted":4927,"Ġfinger":4928,"Ġmuttered":4929,"aptist":4930,"Ġavoid":4931,"!_":4932,"Ch":4933,"make":4934,"oby":4935,"pur":4936,"Ġwicked":4937,"oration":4938,"Ġdry":4939,"Ġpra":4940,"Ġpicked":4941,"ley":4942,"Ġhate":4943,"rive":4944,"rious":4945,"ĠMabeuf":4946,"aming":4947,"Ġsuspe":4948,"ĠBonap":4949,"Ġexcess":4950,"Ġlevel":4951,"Ġjail":4952,"ĠJune":4953,"Ġclim":4954,"ĠOf":4955,"perhaps":4956,"Ġeveryone":4957,"Ġrare":4958,"Ġspeech":4959,"shire":4960,"ĠGodalming":4961,"Ġsurface":4962,"Ġpursued":4963,"Ġadvice":4964,"Ġfearful":4965,"Ġcondition":4966,"Ġpowerful":4967,"Ġdelighted":4968,"Ġmillion":4969,"rantaire":4970,"Ġseparated":4971,"Ġwhispered":4972,"Ġmusic":4973,"ividual":4974,"Ġunfortunate":4975,"Ġmagistrate":4976,"cence":4977,"dest":4978,"lers":4979,"looked":4980,"sil":4981,"same":4982,"took":4983,"turned":4984,"Ġtumult":4985,"Ġsombre":4986,"Ġcries":4987,"Ġdil":4988,"Ġdun":4989,"Ġinformed":4990,"Ġhell":4991,"lebr":4992,"omen":4993,"Ġec":4994,"Ġdeb":4995,"Ġdeceived":4996,"ulate":4997,"ulted":4998,"respond":4999,"Ġwheel":5000,"Ġrust":5001,"ighed":5002,"ĠVampa":5003,"Ġworn":5004,"Ġspr":5005,"Ġcannon":5006,"Ġhanded":5007,"Ġdisg":5008,"why":5009,"Ġended":5010,"chamber":5011,"Ġcorrid":5012,"Ġindescrib":5013,"Ġsupport":5014,"Ġmurder":5015,"Ġapproaching":5016,"going":5017,"ĠEnglishman":5018,"Ġpainful":5019,"Ġannounced":5020,"Ġprecaut":5021,"Ġshuddered":5022,"Ġexecution":5023,"Ġrecollect":5024,"Ġprincipal":5025,"Ġstruggle":5026,"Ġtolerably":5027,"det":5028,"pap":5029,"Ġ6":5030,"Ġwake":5031,"Ġscience":5032,"Ġdam":5033,"Ġhalted":5034,"Ġgain":5035,"Ġgame":5036,"always":5037,"ether":5038,"ili":5039,"thy":5040,"ĠHave":5041,"ource":5042,"olation":5043,"ĠTur":5044,"ĠDon":5045,"cks":5046,"Ġagent":5047,"Ġagreeable":5048,"Ġtwice":5049,"Ġgrown":5050,"Ġnevertheless":5051,"Ġcapt":5052,"Ġmoving":5053,"Ġswear":5054,"world":5055,"Ãīpon":5056,"Ġconcerned":5057,"Valjean":5058,"Ġlabor":5059,"Ġcalcul":5060,"Ġpicture":5061,"ĠPontmercy":5062,"Ãīponine":5063,"Enjolras":5064,"ND":5065,"circ":5066,"put":5067,"sue":5068,"uet":5069,"Ġwand":5070,"reason":5071,"Ġmas":5072,"Ġtomorrow":5073,"another":5074,"omin":5075,"ading":5076,"ĠMan":5077,"ĠCity":5078,"ĠTwo":5079,"ranean":5080,"Ġagreed":5081,"Ġdaylight":5082,"Ġbrains":5083,"izes":5084,"Ġaccident":5085,"Ġcompass":5086,"Ġrecomme":5087,"Ġguilty":5088,"Ġsixty":5089,"Ġproperty":5090,"Ġdestiny":5091,"years":5092,"Ġfastened":5093,"Ġmeantime":5094,"Ġresembled":5095,"Ġintelligence":5096,"Ġprocureur":5097,"Ġextraordinary":5098,"Ġinspector":5099,"Ġlinen":5100,"Cha":5101,"Caderousse":5102,"Pro":5103,"bu":5104,"cut":5105,"yes":5106,"hest":5107,"Ġsong":5108,"Ġdoub":5109,"Ġhollow":5110,"Ġlog":5111,"Ġthither":5112,"uries":5113,"ĠPal":5114,"Ġroll":5115,"udent":5116,"cied":5117,"belie":5118,"ĠRen":5119,"plic":5120,"Ġpeasant":5121,"ĠFrancis":5122,"Ġturns":5123,"noon":5124,"Ġdetect":5125,"ĠPeppino":5126,"Ġuseful":5127,"Ġpulled":5128,"Ġfrequently":5129,"Ġtruly":5130,"Ġsublime":5131,"don":5132,"dif":5133,"mist":5134,"piration":5135,"ration":5136,"tran":5137,"wall":5138,"Ġtap":5139,"Ġtreat":5140,"rect":5141,"itate":5142,"oni":5143,"Ġfill":5144,"Ġinvent":5145,"Ġinvol":5146,"owder":5147,"Ġthorough":5148,"rog":5149,"Ġstretched":5150,"Ġwealth":5151,"Ġweeks":5152,"Ġsaf":5153,"Ġanger":5154,"ousers":5155,"Ġleagues":5156,"Ġarmed":5157,"abs":5158,"Ġquit":5159,"Ġgray":5160,"Ġchoose":5161,"Ġrail":5162,"coming":5163,"Ġhonour":5164,"myself":5165,"Ġmistress":5166,"Ġsummon":5167,"Ġhastened":5168,"Ġtraversed":5169,"Ġcircle":5170,"Ġfrightened":5171,"ĠJonah":5172,"against":5173,"Ġaccepted":5174,"Ġcompanions":5175,"Ġtrembled":5176,"followed":5177,"ĠLongbourn":5178,"Ġqueer":5179,"IL":5180,"Qu":5181,"bene":5182,"pes":5183,"view":5184,"yet":5185,"yard":5186,"Ġtrying":5187,"hal":5188,"Ġbul":5189,"Ġbag":5190,"Ġmain":5191,"ington":5192,"utions":5193,"Ġwhit":5194,"alous":5195,"Ġupper":5196,"Ġstared":5197,"Ġsevent":5198,"people":5199,"ĠCor":5200,"ĠCors":5201,"Ġnearer":5202,"aux":5203,"umph":5204,"ĠDick":5205,"Ġmoreover":5206,"love":5207,"loire":5208,"Ġgrowing":5209,"Ġperil":5210,"ildad":5211,"Ġflame":5212,"Ġspecial":5213,"Ġpresident":5214,"Ġindul":5215,"Ġcapital":5216,"Ġrefused":5217,"Ġtreasure":5218,"Ġpleasant":5219,"Ġsails":5220,"Ġeleg":5221,"Ġrelated":5222,"Ġstrike":5223,"Ġdescend":5224,"ING":5225,"Ġpermitted":5226,"Ġobscure":5227,"Ġgovernment":5228,"Ġetc":5229,"Ġpreceding":5230,"steps":5231,"Ġabsorbed":5232,"Some":5233,"bro":5234,"either":5235,"line":5236,"rue":5237,"vres":5238,"Ġbasket":5239,"Ġfaces":5240,"inging":5241,"ashing":5242,"asons":5243,"ashes":5244,"icip":5245,"stone":5246,"Ġgam":5247,"Ġgard":5248,"add":5249,"Ġsell":5250,"Ġseason":5251,"alley":5252,"Ġvari":5253,"Ġvault":5254,"Ġaloud":5255,"igi":5256,"ĠLizzy":5257,"Ġabyss":5258,"Ġprocess":5259,"Ġseeking":5260,"eanwhile":5261,"Ġbless":5262,"Ġremind":5263,"death":5264,"Ġenthus":5265,"Ġraising":5266,"Ġrecall":5267,"Ġslang":5268,"Ġminds":5269,"Ġswim":5270,"Ġguess":5271,"ĠLucas":5272,"Ġmountain":5273,"Ġsolitary":5274,"Ġjoin":5275,"Ġcircumstance":5276,"ĠEmmanuel":5277,"appearance":5278,"Ġodd":5279,"Ġdiscover":5280,"Ġmortal":5281,"Nevertheless":5282,"Ġamazement":5283,"Ġplunged":5284,"OM":5285,"ky":5286,"ober":5287,"round":5288,"sar":5289,"sail":5290,"Ġing":5291,"Ġwise":5292,"Ġbal":5293,"Ġmess":5294,"Ġmild":5295,"Ġpushed":5296,"ators":5297,"atched":5298,"Ġrear":5299,"rific":5300,"amme":5301,"ctober":5302,"iform":5303,"ĠSometimes":5304,"Ġshru":5305,"ĠHeaven":5306,"apsed":5307,"Ġarch":5308,"because":5309,"Ġdism":5310,"Ġperceive":5311,"ossuet":5312,"Ġmighty":5313,"conv":5314,"Ġcalling":5315,"Ġattitude":5316,"Ġrecovered":5317,"iction":5318,"Ġmarch":5319,"Ġfeels":5320,"Ġ17":5321,"Ġpoints":5322,"Ġsteward":5323,"Ġclever":5324,"understand":5325,"Ġexcited":5326,"Ġeighty":5327,"speak":5328,"Ġeduc":5329,"Ġplainly":5330,"Ġparticularly":5331,"Ġleaned":5332,"ĠQuincey":5333,"trees":5334,"occup":5335,"Ġauthority":5336,";âĢĿ":5337,"Gavroche":5338,"Take":5339,"kins":5340,"power":5341,"tle":5342,"Ġ7":5343,"rees":5344,"Ġsank":5345,"Ġboulevard":5346,"Ġbirth":5347,"Ġpill":5348,"ĠII":5349,"stem":5350,"alities":5351,"Ġseam":5352,"pelled":5353,"ulars":5354,"uster":5355,"Ġfee":5356,"Ġrough":5357,"Ġwhenever":5358,"ept":5359,"meil":5360,"Ġgrasp":5361,"Ġgroup":5362,"Ġdisappo":5363,"Ġflung":5364,"Ġswall":5365,"Ġamongst":5366,"black":5367,"Ġveh":5368,"fermeil":5369,"Ġrepeat":5370,"Ġprobable":5371,"Ġslightest":5372,"Ġsituated":5373,"ĠCombeferre":5374,"Ġconnected":5375,"person":5376,"kerchief":5377,"Look":5378,"dire":5379,"hour":5380,"iest":5381,"pul":5382,"sleep":5383,"Ã´":5384,"Ãł":5385,"Ġ&":5386,"Ġoars":5387,"hast":5388,"Ġmou":5389,"itudes":5390,"orable":5391,"Ġpress":5392,"Ġphant":5393,"Ġlack":5394,"ĠIN":5395,"Ġbeha":5396,"ids":5397,"Ġassemb":5398,"ache":5399,"Ġwel":5400,"Ġwear":5401,"things":5402,"lix":5403,"Ġvenge":5404,"Ġunconscious":5405,"ĠEast":5406,"cip":5407,"derer":5408,"lessly":5409,"ethod":5410,"Ġinstance":5411,"Ġassumed":5412,"Ġlover":5413,"bye":5414,"Ġindividual":5415,"Ġconfused":5416,"Ġnaturally":5417,"Ġintention":5418,"Ġskin":5419,"Ġactually":5420,"engers":5421,"Ġmidnight":5422,"Ġeleven":5423,"Ġexcuse":5424,"Ġnecessity":5425,"Ġremaining":5426,"happiness":5427,"Ġleading":5428,"Ġexplain":5429,"Ġdefend":5430,"Ġconviction":5431,"Ġfolded":5432,"ĠXVIII":5433,"Ġcoachman":5434,"Ġadventure":5435,"necessary":5436,"Fauchelevent":5437,"ĠJuly":5438,"etherfield":5439,"RE":5440,"water":5441,"hara":5442,"enes":5443,"Ġtoss":5444,"Ġtoday":5445,"asy":5446,"Ġhuge":5447,"Ġheat":5448,"atory":5449,"stra":5450,"Ġate":5451,"Ġsheet":5452,"ĠWhile":5453,"Ġliked":5454,"Ġamiable":5455,"Ġworked":5456,"Ġprodig":5457,"ĠGer":5458,"Ġshame":5459,"ĠOctober":5460,"Ġeverybody":5461,"tyard":5462,"Ġaddition":5463,"Ġholy":5464,"Ġaffect":5465,"Ġpurse":5466,"Ġsouth":5467,"Ġextent":5468,"impse":5469,"Ġstriking":5470,"Mrs":5471,"Ġexplained":5472,"Ġdrive":5473,"ĠBarrois":5474,"Ġedge":5475,"Ġformerly":5476,"Ġmajesty":5477,"Ġdestroyed":5478,"Ġdisturb":5479,"veloped":5480,"ĠWilliam":5481,"Ġmourn":5482,"ĠMagloire":5483,"Ġexhausted":5484,"Ġmystery":5485,"Ab":5486,"Cristo":5487,"daughter":5488,"gent":5489,"mast":5490,"nor":5491,"table":5492,"voice":5493,"Ġur":5494,"Ġtheat":5495,"Ġfled":5496,"Ġcem":5497,"Ġhospit":5498,"Ġnerv":5499,"icular":5500,"lys":5501,"ĠMoby":5502,"ilight":5503,"Ġsupre":5504,"Ġdoll":5505,"ĠGo":5506,"Ġsomewhere":5507,"Ġshape":5508,"Ã©es":5509,"rise":5510,"ĠRos":5511,"ĠRoman":5512,"Ġtroubled":5513,"enedetto":5514,"mbers":5515,"Ġflash":5516,"Ġaccent":5517,"Ġcalls":5518,"ensive":5519,"common":5520,"ception":5521,"Noirtier":5522,"Ġswell":5523,"Ġswift":5524,"Ġinterior":5525,"Ġideal":5526,"Ġtransp":5527,"Thus":5528,"whole":5529,"Ġproport":5530,"hands":5531,"ĠProvidence":5532,"Ġtempt":5533,"Ġfancied":5534,"Ġfurnished":5535,"Ġanimal":5536,"Ġinhabit":5537,"Ġreverie":5538,"Ġoverwhelmed":5539,"Ġgesture":5540,"Ġprovided":5541,"gentle":5542,"garden":5543,"lim":5544,"pany":5545,"sus":5546,"saw":5547,"too":5548,"Ġax":5549,"Ġbor":5550,"Ġmat":5551,"Ġfoo":5552,"Ġfailed":5553,"Ġchat":5554,"Ġcool":5555,"Ġcoward":5556,"ancy":5557,"Ġbeloved":5558,"stones":5559,"Ġwhist":5560,"hern":5561,"Ġmechan":5562,"Ġdepend":5563,"resa":5564,"ĠSh":5565,"Ġshr":5566,"astr":5567,"umes":5568,"ckets":5569,"Ġspare":5570,"ĠJulie":5571,"Ġcler":5572,"Ġdesert":5573,"Ġways":5574,"Ġglory":5575,"Ġpreserved":5576,"Ġsubst":5577,"brary":5578,"Ġsignal":5579,"Ġnorth":5580,"Ġtrace":5581,"remained":5582,"Ġ(_":5583,"Ġportion":5584,"Ġpatient":5585,"Ġarrange":5586,"Ġphilosophy":5587,"Ġdarted":5588,"Ġbuilding":5589,"Ġmaterial":5590,"Ġscrut":5591,"ĠGreek":5592,"Ġvoices":5593,"Ġpavement":5594,"Ġcorridor":5595,"Ġsafety":5596,"Count":5597,"Edmond":5598,"general":5599,"mas":5600,"sol":5601,"upe":5602,"Ġbows":5603,"Ġfulf":5604,"stri":5605,"utter":5606,"adise":5607,"quet":5608,"Ġaltogether":5609,"eless":5610,"Ġarg":5611,"Ġgrim":5612,"near":5613,"Ġprecious":5614,"whom":5615,"Ġowner":5616,"Ġconsent":5617,"Ġwrink":5618,"Ġwrath":5619,"Ġsecure":5620,"Ġinside":5621,"point":5622,"Ġdragged":5623,"Ġwants":5624,"grand":5625,"Ġadmiration":5626,"Ġbestowed":5627,"Ġprisoners":5628,"ĠPeleg":5629,"Ġembar":5630,"Ġsolid":5631,"Ġcraft":5632,"ĠMontparnasse":5633,"Ġvalue":5634,"Ġfamiliar":5635,"Ġtimid":5636,"Ġsympath":5637,"Ġstyle":5638,"dark":5639,"ially":5640,"sort":5641,"inate":5642,"Ġwid":5643,"eding":5644,"Ġcop":5645,"atal":5646,"left":5647,"Ġrejo":5648,"Ġreasons":5649,"aying":5650,"terrible":5651,"quarter":5652,"ĠBab":5653,"ouring":5654,"Ġvic":5655,"osen":5656,"aping":5657,"Ġshare":5658,"Ġdischar":5659,"Ġchoice":5660,"arks":5661,"Ġraise":5662,"soci":5663,"ĠMorris":5664,"Ġcover":5665,"Ġmarble":5666,"Ġharsh":5667,"Ġfinding":5668,"Ġrefuge":5669,"Ġnative":5670,"Ġsigned":5671,"stern":5672,"...":5673,"âĢĶâĢĶâĢĶâĢĶ":5674,"Ġfinal":5675,"Ġmurderer":5676,"umbling":5677,"Ġboxes":5678,"Ġdeparted":5679,"verend":5680,"Ġharpoon":5681,"ĠEmperor":5682,"words":5683,"Ġkissed":5684,"Ġhotel":5685,"Ġcases":5686,"Ġembarrass":5687,"Phara":5688,"fin":5689,"fell":5690,"tained":5691,"wers":5692,"het":5693,"Ġmaid":5694,"enet":5695,"Ġcher":5696,"Ġcard":5697,"Ġnum":5698,"Ġlaughter":5699,"Ġep":5700,"amation":5701,"ĠBildad":5702,"Ġexerc":5703,"astrop":5704,"ĠPres":5705,"ĠPip":5706,"apan":5707,"agon":5708,"Ġprospect":5709,"Ġquar":5710,"resses":5711,"Ġrepose":5712,"Ġremarked":5713,"ivory":5714,"Ġterrified":5715,"Ġcrack":5716,"Ġvisited":5717,"Ġconfl":5718,"amped":5719,"grat":5720,"Ġunderstanding":5721,"Ġcreated":5722,"strous":5723,"Ġhurt":5724,"Ġmerchant":5725,"Ġviolence":5726,"Ġsinging":5727,"Ġreflect":5728,"Ġordinary":5729,"Ġutterly":5730,"Ġbetrayed":5731,"Ġconsequence":5732,"HICH":5733,"continued":5734,"ĠSpanish":5735,"Ġjailer":5736,"ĠCorsic":5737,"Ġvengeance":5738,"Pharaon":5739,"AL":5740,"Listen":5741,"Phileas":5742,"bad":5743,"drew":5744,"hib":5745,"mod":5746,"ov":5747,"pus":5748,"inity":5749,"ites":5750,"Ġcir":5751,"ano":5752,"Ġdig":5753,"Ġbeard":5754,"stre":5755,"herself":5756,"Ġsees":5757,"andy":5758,"ĠAd":5759,"ulse":5760,"resist":5761,"Ġfears":5762,"Ġrum":5763,"Ġnoon":5764,"Ġard":5765,"Ġchain":5766,"Ġflat":5767,"rows":5768,"Ġglimpse":5769,"ceptible":5770,"Ġsooner":5771,"Ġaffected":5772,"poor":5773,"alet":5774,"heads":5775,"Ġreturning":5776,"Ġclean":5777,"Ġclosely":5778,"Ġexception":5779,"Ġhurried":5780,"Ġbadly":5781,"Ġmercy":5782,"Ġplaying":5783,"fortunes":5784,"Ġfurniture":5785,"keys":5786,"Ġarrested":5787,"Ġencountered":5788,"human":5789,"question":5790,"Ġfetch":5791,"OOK":5792,"Ġtitle":5793,"Ġbreeze":5794,"Ġindescribable":5795,"astrini":5796,"Her":5797,"Two":5798,"bid":5799,"bel":5800,"cap":5801,"dward":5802,"ele":5803,"gone":5804,"remon":5805,"Ġbones":5806,"ork":5807,"Ġinex":5808,"athed":5809,"ĠIII":5810,"Ġasking":5811,"ĠMe":5812,"ĠBomb":5813,"ĠBaptist":5814,"Ġruff":5815,"arther":5816,"Ġliber":5817,"Ġprov":5818,"Ġunivers":5819,"ĠEven":5820,"Ã©t":5821,"Ġcloth":5822,"Ġtrousers":5823,"ignation":5824,"closed":5825,"Ġrespond":5826,"Ġchase":5827,"intment":5828,"oyal":5829,"Ġrested":5830,"ugg":5831,"Ġabsent":5832,"Ġtrial":5833,"Ġdrove":5834,"Ġdrops":5835,"Ġlandlord":5836,"Ġhurry":5837,"Ġpainted":5838,"Ġexplanation":5839,"cannot":5840,"Ġimagination":5841,"evening":5842,"Ġsufficiently":5843,"Ġgovernor":5844,"Ġdisturbed":5845,"Ġascended":5846,"Ġbridge":5847,"Perhaps":5848,"satis":5849,"Ġcemet":5850,"Can":5851,"Don":5852,"IT":5853,"aily":5854,"apped":5855,"called":5856,"opp":5857,"prom":5858,"rather":5859,"van":5860,"war":5861,"ĠZ":5862,"ĠÃīponine":5863,"Ġtig":5864,"oug":5865,"Ġmatch":5866,"Ġpan":5867,"icles":5868,"utation":5869,"Ġrevenge":5870,"Ġweap":5871,"ainte":5872,"Ġmeasure":5873,"Ġshel":5874,"umped":5875,"igantic":5876,"Ġshade":5877,"uding":5878,"Ġovercome":5879,"ĠRo":5880,"conce":5881,"Ġrecalled":5882,"Ġserve":5883,"Ġappo":5884,"Ġpointing":5885,"Ġbelief":5886,"Ġstead":5887,"serv":5888,"Ġforever":5889,"Ġbreaking":5890,"longer":5891,"Ġframe":5892,"Ġtriumph":5893,"Ġexists":5894,"Ġcolor":5895,"Ġcelebr":5896,"Ġdiscuss":5897,"small":5898,"glass":5899,"Ġdevoted":5900,"ĠĠĠĠĠĠĠĠĠĠĠĠĠĠĠĠĠĠĠĠĠĠĠĠĠĠĠĠĠĠĠĠ":5901,"Ġrocks":5902,"Ġsucceed":5903,"Ġwhisper":5904,"Ġvanished":5905,"Ġexperience":5906,"Ġuneasiness":5907,"ĠCharlotte":5908,"ĠPerhaps":5909,"Ġobeyed":5910,"Ġassistance":5911,"Ġcouple":5912,"Ġpilot":5913,"Ġsupreme":5914,"Mont":5915,"Pr":5916,"SE":5917,"doubt":5918,"francs":5919,"felt":5920,"lest":5921,"uit":5922,"wait":5923,"Ġtest":5924,"Ġtired":5925,"Ġsentine":5926,"Ġbase":5927,"Ġmethod":5928,"Ġfix":5929,"Ġfool":5930,"Ġtoward":5931,"Ġdining":5932,"ĠIV":5933,"otions":5934,"irgin":5935,"urred":5936,"Ġug":5937,"acher":5938,"Ġanch":5939,"ands":5940,"ores":5941,"ĠChan":5942,"Ġdogs":5943,"ĠTO":5944,"Ġagitated":5945,"Ġuniform":5946,"oping":5947,"ĠNetherfield":5948,"Ġgrasped":5949,"Ġblows":5950,"Ġperf":5951,"Ġflu":5952,"Ġboots":5953,"comfort":5954,"Ġsigns":5955,"Ġadvancing":5956,"Ġgenerous":5957,"Ġsurely":5958,"viour":5959,"ourable":5960,"chance":5961,"carriage":5962,"sometimes":5963,"Ġemerged":5964,"Ġobscurity":5965,"natural":5966,"Ġwolf":5967,"Ġfierce":5968,"Ġharpooneer":5969,"Ġnervous":5970,"BOOK":5971,"Dr":5972,"IV":5973,"gall":5974,"Ġtro":5975,"Ġtreated":5976,"Ġaim":5977,"isible":5978,"Ġtoil":5979,"anim":5980,"Ġpace":5981,"Ġpowers":5982,"Ġheed":5983,"Ġhab":5984,"ads":5985,"urb":5986,"kelet":5987,"ĠHen":5988,"ĠSc":5989,"ĠSund":5990,"Ġvener":5991,"Ġshirt":5992,"ĠPol":5993,"Ġtwilight":5994,"Ġdidn":5995,"others":5996,"Ġdisd":5997,"Ġdesperate":5998,"Ġpassengers":5999,"pses":6000,"Ġobed":6001,"ivity":6002,"Ġapplied":6003,"Ġsetting":6004,"ĠKitty":6005,"Ġkeeping":6006,"Ġvex":6007,"Ġcastle":6008,"ĠSee":6009,"Ġviolently":6010,"ĠIsland":6011,"Ġtravellers":6012,"Ġinquire":6013,"Ġregarded":6014,"Ġpolitical":6015,"Ġaccomplished":6016,"Ġgroan":6017,"Ġbrilliant":6018,"Ġextremity":6019,"eight":6020,"fam":6021,"find":6022,"iac":6023,"pool":6024,"taken":6025,"Ã®":6026,"hew":6027,"Ġbos":6028,"itor":6029,"itating":6030,"Ġfare":6031,"Ġtore":6032,"inged":6033,"icate":6034,"verted":6035,"urance":6036,"riages":6037,"Ġstiff":6038,"oress":6039,"ulation":6040,"oused":6041,"Ġmanif":6042,"Ġvalet":6043,"Ġrate":6044,"Ġrub":6045,"Ġrank":6046,"ĠWHICH":6047,"olomy":6048,"ĠTake":6049,"akened":6050,"opened":6051,"ĠEx":6052,"mend":6053,"Ġusually":6054,"Ġtrack":6055,"Ġspecies":6056,"Ġarmchair":6057,"Ġwhalemen":6058,"Ġcorrespond":6059,"Ġindicated":6060,"Ġfourth":6061,"Ġcourtyard":6062,"Ġintent":6063,"anything":6064,"Ġobserve":6065,"Ġbreathing":6066,"Ġmadness":6067,"Ġdriven":6068,"Ġsatisfaction":6069,"Ġconstit":6070,"Ġpermit":6071,"Ġpreviously":6072,"Ã¦sar":6073,"Ġlocked":6074,"ĠRevolution":6075,"Ġimportance":6076,"Ġpictures":6077,"Ġobey":6078,"Ġtranquil":6079,"Ġdistinctly":6080,"Ġpursuit":6081,"athered":6082,"ĠAmerican":6083,"Ġinquiries":6084,"Ġintervals":6085,"vellous":6086,"Ġsuspended":6087,"Ġdetective":6088,"olomyÃ¨s":6089,"CE":6090,"During":6091,"Dorothy":6092,"Eng":6093,"Pe":6094,"Such":6095,"coun":6096,"ds":6097,"fig":6098,"gic":6099,"gest":6100,"host":6101,"jon":6102,"mid":6103,"ok":6104,"ocious":6105,"sign":6106,"tri":6107,"upt":6108,"rey":6109,"Ġoath":6110,"orse":6111,"lected":6112,"othed":6113,"idering":6114,"alt":6115,"aling":6116,"Ġwithdra":6117,"ĠMond":6118,"Ġsand":6119,"ander":6120,"ighted":6121,"ĠCo":6122,"ĠSignor":6123,"ĠBus":6124,"Ġlibrary":6125,"aks":6126,"ĠPastrini":6127,"Ġjaw":6128,"Ġspl":6129,"ĠEach":6130,"dead":6131,"Ġafternoon":6132,"Ġobtained":6133,"Ġyounger":6134,"Ġprow":6135,"Ġcarp":6136,"merald":6137,"Ġcontinue":6138,"Ġsteel":6139,"Ġdetails":6140,"ĠLuigi":6141,"Ġmeanwhile":6142,"Ġstrangely":6143,"Ġhighly":6144,"Ġ182":6145,"Ġ183":6146,"country":6147,"Ġcalmly":6148,"Ġsystem":6149,"ĠXX":6150,"guard":6151,"Ġtravelling":6152,"Ġfigures":6153,"recogn":6154,"Ġerror":6155,"Ġindifference":6156,"Ġabandoned":6157,"Ġdignity":6158,"Ġfatigue":6159,"Ġfruit":6160,"Ġdungeon":6161,"bing":6162,"bly":6163,"iet":6164,"iary":6165,"lance":6166,"Ġaug":6167,"Ġowe":6168,"eral":6169,"Ġbrief":6170,"Ġfil":6171,"llen":6172,"Ġdish":6173,"Ġhovel":6174,"Ġlat":6175,"strange":6176,"uten":6177,"ental":6178,"Ġreck":6179,"adm":6180,"acific":6181,"account":6182,"ĠMoreover":6183,"Ġsuit":6184,"ĠWicked":6185,"embourg":6186,"ĠTell":6187,"agreeable":6188,"ĠGen":6189,"Ġgrating":6190,"Ġprey":6191,"manner":6192,"Ġcontented":6193,"Ġglanced":6194,"soon":6195,"Ġattract":6196,"Ġslave":6197,"ensity":6198,"Ġfolly":6199,"Ġcorrect":6200,"Ġsilk":6201,"ĠStill":6202,"Ġdrag":6203,"tense":6204,"ĠParisian":6205,"Ġadmire":6206,"Ġstands":6207,"Ġconvuls":6208,"lerval":6209,"arsee":6210,"Ġcontract":6211,"Ġequally":6212,"Ġparticulars":6213,"Ġbringing":6214,"ĠMontfermeil":6215,"Ġpermission":6216,"Ġsacrifice":6217,"Ġneighbour":6218,"Ġcostume":6219,"Ġemploy":6220,"Ġaudible":6221,"Ġdiscovery":6222,"Ġfaithful":6223,"Really":6224,"Ġtranquill":6225,"Ġflying":6226,"ĠNevertheless":6227,"Ġhigher":6228,"Ġapparently":6229,"Ġhitherto":6230,"Ġhanging":6231,"Ġeducation":6232,"pulch":6233,"Ġcemetery":6234,"Ġugly":6235,"Lu":6236,"cre":6237,"cif":6238,"eor":6239,"fit":6240,"mat":6241,"net":6242,"post":6243,"posed":6244,"Ġivory":6245,"Ġtend":6246,"inqu":6247,"Ġbol":6248,"itc":6249,"itive":6250,"itiz":6251,"enger":6252,"Ġfarther":6253,"asures":6254,"Ġpot":6255,"Ġintense":6256,"Ġhalt":6257,"ldom":6258,"Ġreaching":6259,"Ġstupe":6260,"Ġwept":6261,"Ġdearest":6262,"rapped":6263,"usual":6264,"lier":6265,"Ġlivid":6266,"Ġamuse":6267,"Ġgrateful":6268,"mented":6269,"Ġpole":6270,"Ġenv":6271,"Ġblessed":6272,"Ġclaim":6273,"ĠOr":6274,"Ġperform":6275,"plain":6276,"Ġgoodness":6277,"Ġthinks":6278,"Ġimpert":6279,"Ġrecord":6280,"exc":6281,"Ġdistress":6282,"ĠThose":6283,"cern":6284,"Ġvision":6285,"raced":6286,"ĠKong":6287,"ĠChamp":6288,"Ġneeds":6289,"Ġlively":6290,"Ġinvisible":6291,"Ġtorch":6292,"however":6293,"Ġproduce":6294,"Ġgolden":6295,"Ġcollect":6296,"Ġsenses":6297,"whether":6298,"Ġplanks":6299,"Ġinclined":6300,"Ġconnection":6301,"Ġpistols":6302,"large":6303,"complete":6304,"Ġecst":6305,"Aye":6306,"Pic":6307,"creat":6308,"eenth":6309,"fa":6310,"swe":6311,"saint":6312,"xion":6313,"Ġwis":6314,"Ġbay":6315,"Ġmud":6316,"Ġhill":6317,"otto":6318,"Ġev":6319,"Ġgrie":6320,"Ġguns":6321,"utch":6322,"rol":6323,"Ġweary":6324,"Ġange":6325,"âĢĶâĢĺ":6326,"ĠSat":6327,"Ġray":6328,"Ġorn":6329,"onds":6330,"Ġrolling":6331,"Ġadop":6332,"Ġhandkerchief":6333,"Ġcho":6334,"Ġchosen":6335,"rujon":6336,"Ġprepar":6337,"Ġthoughtful":6338,"Ġscream":6339,"Ġattorney":6340,"Ġcrushed":6341,"Ġreadily":6342,"eryton":6343,"Ġsignific":6344,"Ġpersonal":6345,"Ġkindly":6346,"Ġawake":6347,"Ġadmitted":6348,"Ġneeded":6349,"Ġelev":6350,"Ġcrossing":6351,"Ġinteresting":6352,"Ġaccompany":6353,"Ġfreely":6354,"Ġlawy":6355,"hard":6356,"desp":6357,"Ġsensation":6358,"Ġeste":6359,"Ġfreed":6360,"Still":6361,"ology":6362,"Ġcivilization":6363,"Ġinsurrection":6364,"ributed":6365,"Ġ1815":6366,"Ġorigin":6367,"Ġsinister":6368,"Ġcottage":6369,"course":6370,"ĠTeresa":6371,"Ġwaistcoat":6372,"Ġhunger":6373,"Ġjealous":6374,"Ġcriminal":6375,"Ġabruptly":6376,"Ġproportion":6377,"MercÃ©dÃ¨s":6378,"done":6379,"iqu":6380,"pher":6381,"va":6382,"vaire":6383,"Åĵ":6384,"Ġwounds":6385,"rene":6386,"Ġbid":6387,"itement":6388,"Ġfie":6389,"Ġcrying":6390,"orious":6391,"Ġdance":6392,"Ġpin":6393,"Ġpred":6394,"Ġink":6395,"Ġheap":6396,"Ġyard":6397,"Ġgown":6398,"Ġthirst":6399,"lying":6400,"Ġrele":6401,"Ġstage":6402,"ifying":6403,"ĠAugust":6404,"Ġsust":6405,"ĠHong":6406,"ĠCal":6407,"geant":6408,"ĠBenedetto":6409,"Ġras":6410,"Ġrays":6411,"ems":6412,"ĠDuring":6413,"ĠLook":6414,"owned":6415,"Ġsomehow":6416,"ĠJac":6417,"ĠJapan":6418,"loqu":6419,"Ġhandle":6420,"beaut":6421,"ĠOur":6422,"Ġperformed":6423,"Ġchapel":6424,"Ġrags":6425,"ĠMonseigneur":6426,"convers":6427,"Ġreco":6428,"Ġtea":6429,"Ġstream":6430,"Ġsilently":6431,"Ġrestored":6432,"days":6433,"Ġacquired":6434,"locked":6435,"Ġcontinually":6436,"Ġdeadly":6437,"armes":6438,"Ġawful":6439,"Ġutmost":6440,"Ġadmirable":6441,"preced":6442,"Ġveil":6443,"Ġhumanity":6444,"Ġlowered":6445,"Ġfury":6446,"apping":6447,"Ġrelate":6448,"Ġsolitude":6449,"Ġknee":6450,"Ġrule":6451,"Ġmodern":6452,"legraph":6453,"digger":6454,"window":6455,"Ġconcluded":6456,"given":6457,"Ġassassin":6458,"Ġreplaced":6459,"Ġilluminated":6460,"Ġcomprehend":6461,"Ġthoroughly":6462,"ammered":6463,"Ġscrutin":6464,"Ġresponded":6465,"Maximilian":6466,"Un":6467,"ba":6468,"covered":6469,"ef":6470,"equ":6471,"each":6472,"rough":6473,"spo":6474,"Ã§":6475,"Ġrom":6476,"Ġaye":6477,"requ":6478,"Ġder":6479,"Ġdine":6480,"Ġdressing":6481,"asque":6482,"Ġpowder":6483,"lex":6484,"Ġgigantic":6485,"Ġrese":6486,"ĠMaire":6487,"Ġsepulch":6488,"ama":6489,"tego":6490,"tending":6491,"ula":6492,"Ġconqu":6493,"antry":6494,"Ġexting":6495,"Ġrush":6496,"Ġnois":6497,"Ġplate":6498,"ĠEl":6499,"ĠRight":6500,"placed":6501,"Ġretorted":6502,"Ġprince":6503,"Ġbegins":6504,"Ġmarvellous":6505,"ension":6506,"ansas":6507,"Ġloves":6508,"Ġstrangers":6509,"Ġswept":6510,"Ġhumble":6511,"served":6512,"letter":6513,"ashtego":6514,"Ġelapsed":6515,"Ġprofession":6516,"prise":6517,"Ġinvited":6518,"mediate":6519,"Ġobjects":6520,"Ġladder":6521,"ĠFaubourg":6522,"Ġtemper":6523,"Ġsoftly":6524,"Ġremarkable":6525,"Ġrecollection":6526,"Ġinnocence":6527,"Ġdelicate":6528,"Ġindifferent":6529,"Ġeternal":6530,"Ġgenius":6531,"Ġjewell":6532,"ĠBombay":6533,"ĠBusoni":6534,"cifix":6535,"Com":6536,"Fantine":6537,"ION":6538,"ball":6539,"both":6540,"far":6541,"fif":6542,"foot":6543,"gents":6544,"ipped":6545,"la":6546,"pest":6547,"shad":6548,"turn":6549,"vity":6550,"Ġsize":6551,"hales":6552,"edy":6553,"Ġbas":6554,"Ġmood":6555,"Ġmaint":6556,"Ġmask":6557,"Ġcu":6558,"ante":6559,"Ġpaint":6560,"Ġnail":6561,"Ġbears":6562,"along":6563,"verty":6564,"urday":6565,"Ġsoil":6566,"Ġsugg":6567,"sels":6568,"aunt":6569,"uming":6570,"Ġjack":6571,"Ġaged":6572,"Ġagitation":6573,"Ġshaking":6574,"Ġintox":6575,"udence":6576,"cien":6577,"behind":6578,"Ġpasses":6579,"dev":6580,"Ġreserved":6581,"return":6582,"lessness":6583,"Ġaccur":6584,"Ġattacked":6585,"Ġinstr":6586,"pleasure":6587,"Ġsunset":6588,"Ġmisfortunes":6589,"Ġstrict":6590,"Ã©nardiers":6591,"Ġinfam":6592,"Ġawoke":6593,"overn":6594,"Ġvel":6595,"Ġattended":6596,"Ġcompleted":6597,"Ġcutting":6598,"Ġconsideration":6599,"Ġemperor":6600,"affold":6601,"Ãīlys":6602,"Ġsalon":6603,"Ġruined":6604,"Ġconstantly":6605,"Ġboys":6606,"Ġprevented":6607,"Ġdescription":6608,"Ġhesitation":6609,"Ġcounter":6610,"Ġextremely":6611,"Ġpurchase":6612,"Ġfamilies":6613,"Ġpallor":6614,"circumst":6615,"Ġgamin":6616,"dy":6617,"fire":6618,"making":6619,"wl":6620,"Ġess":6621,"inces":6622,"Ġwet":6623,"itical":6624,"lect":6625,"Ġnation":6626,"Ġnaked":6627,"Ġloose":6628,"sto":6629,"imag":6630,"Ġgulf":6631,"Ġwhither":6632,"riel":6633,"Ġstammered":6634,"Ġsus":6635,"Ġconject":6636,"ĠSouth":6637,"ĠBossuet":6638,"Ġexhib":6639,"ĠPoor":6640,"Ġworst":6641,"Ġjumped":6642,"Ġproble":6643,"ĠEmerald":6644,"Ġanybody":6645,"udge":6646,"neigh":6647,"Ġperceiving":6648,"perfect":6649,"olly":6650,"athieu":6651,"Ġresp":6652,"ĠThough":6653,"Ġmonstrous":6654,"Ġregiment":6655,"Ġirr":6656,"Ġcareful":6657,"Ġsailed":6658,"therefore":6659,"does":6660,"Ġincred":6661,"Ġsounds":6662,"Ġsweep":6663,"Ġbreathe":6664,"Ġcenturies":6665,"Ġcolonel":6666,"Ġtravel":6667,"reshold":6668,"ĠFrenchman":6669,"ĠIndia":6670,"Beau":6671,"Before":6672,"Ġhungry":6673,"acques":6674,"emberley":6675,"Ġpopular":6676,"Ġwolves":6677,"Ġrelief":6678,"ĠChristian":6679,"castle":6680,"Ġfortunate":6681,"Ġdistrict":6682,"Ġsuspicion":6683,"Ġsummoned":6684,"Ġsympathy":6685,"keleton":6686,"ÃīlysÃ©es":6687,"18":6688,"Bah":6689,"Moreover":6690,"bell":6691,"bru":6692,"fr":6693,"nel":6694,"sent":6695,"suddenly":6696,"Ġtiny":6697,"ouched":6698,"Ġbought":6699,"Ġbishop":6700,"Ġcel":6701,"anina":6702,"Ġped":6703,"Ġpoured":6704,"âĢĿ;":6705,"Ġlit":6706,"Ġlance":6707,"ician":6708,"Ġbewild":6709,"Ġrenew":6710,"iron":6711,"Ġstol":6712,"illery":6713,"terranean":6714,"ilful":6715,"ques":6716,"oussaint":6717,"respect":6718,"antity":6719,"ĠSte":6720,"liest":6721,"Ġwheels":6722,"Ġwilling":6723,"Ġagree":6724,"Ġpockets":6725,"Ġthrone":6726,"Ġparted":6727,"Ġattracted":6728,"Ġnights":6729,"Ġendure":6730,"Ġlights":6731,"Ġmoral":6732,"brought":6733,"Ġsteady":6734,"eye":6735,"prec":6736,"Ġfurious":6737,"Ġbreathed":6738,"ĠPeople":6739,"Ġbusy":6740,"Ġgravely":6741,"Ġbuy":6742,"Ġpatron":6743,"Ġmerry":6744,"ĠLeviathan":6745,"ridges":6746,"Ġtempest":6747,"Ġconcern":6748,"Ġeaten":6749,"Ġbandits":6750,"Ġenemies":6751,"Ġdescribed":6752,"Ġpalace":6753,"ĠEverything":6754,"Ġrobber":6755,"Ġintelligent":6756,"Ġintroduced":6757,"Ġfields":6758,"Ġhighest":6759,"struck":6760,"Ġvehicle":6761,"Ġfoolish":6762,"Ġcelebrated":6763,"Ġbosom":6764,"utenant":6765,"IG":6766,"Meanwhile":6767,"Queequeg":6768,"True":6769,"cat":6770,"dr":6771,"matter":6772,"uable":6773,"watch":6774,"Ġ9":6775,"Ġident":6776,"hear":6777,"inous":6778,"Ġwax":6779,"Ġburn":6780,"Ġbatt":6781,"Ġfac":6782,"Ġcaut":6783,"Ġcaval":6784,"arte":6785,"Ġdaring":6786,"asions":6787,"Ġlot":6788,"Ġlake":6789,"ico":6790,"owl":6791,"Ġthief":6792,"Ġrent":6793,"already":6794,"irs":6795,"irous":6796,"oop":6797,"Ġsuspect":6798,"quite":6799,"rait":6800,"ĠCatal":6801,"ĠCÃ¦sar":6802,"ulations":6803,"ĠSan":6804,"Ġkings":6805,"Ġshown":6806,"Ġshed":6807,"Ġlivres":6808,"umps":6809,"ĠGrantaire":6810,"Ġclub":6811,"ignant":6812,"action":6813,"Ġspend":6814,"conc":6815,"Ġconsisted":6816,"Ġappar":6817,"Ġloaded":6818,"Ġbarrier":6819,"Ġinsult":6820,"Ġinterrog":6821,"arned":6822,"spap":6823,"Ġexclamation":6824,"Ġfortnight":6825,"Ġprompt":6826,"Ġdrunk":6827,"Ġsummit":6828,"Ġproposed":6829,"Ġinvitation":6830,"Ġdescending":6831,"Ġbelongs":6832,"Ġcollected":6833,"Ġcommanded":6834,"livered":6835,"Ġdegrees":6836,"Ġpunishment":6837,"Ġlimbs":6838,"Ġtenderness":6839,"Ġcruel":6840,"Ġencounter":6841,"Ġphilosopher":6842,"children":6843,"quisite":6844,"Ġpipe":6845,"Ġdistinguished":6846,"Ġreproach":6847,"ĠBonapart":6848,"Ġbehaviour":6849,"Ġmournful":6850,"astrophe":6851,"Ġobedience":6852,"Ġtranquillity":6853,"Ahab":6854,"ET":6855,"Or":6856,"Shall":6857,"ere":6858,"ique":6859,"jour":6860,"lay":6861,"mps":6862,"sun":6863,"tar":6864,"Ġtied":6865,"real":6866,"reck":6867,"Ġsource":6868,"Ġowing":6869,"Ġcul":6870,"Ġdashed":6871,"Ġlouis":6872,"otted":6873,"Ġeast":6874,"Ġreceiving":6875,"also":6876,"Ġforgive":6877,"Ġstick":6878,"ĠMary":6879,"Ġseldom":6880,"among":6881,"ĠArab":6882,"Ġvac":6883,"isting":6884,"Ġaloft":6885,"umet":6886,"ĠParsee":6887,"urely":6888,"ĠVI":6889,"Ġouter":6890,"ĠGeneral":6891,"Ġquay":6892,"Ġpoet":6893,"olded":6894,"achment":6895,"Ġflower":6896,"returned":6897,"Ġscru":6898,"feet":6899,"Ġcarriages":6900,"sole":6901,"Ġimpression":6902,"within":6903,"Ġinstru":6904,"Ġkeen":6905,"ĠThÃ©":6906,"Ġaddressing":6907,"Ġguests":6908,"uteuil":6909,"spread":6910,"Ġrig":6911,"untarily":6912,"blood":6913,"ĠQue":6914,"Ġbenevol":6915,"Ġveins":6916,"Ġprioress":6917,"yourself":6918,"Ġdelightful":6919,"change":6920,"Ġannounce":6921,"Ġheavily":6922,"Ġslightly":6923,"Ġselfish":6924,"Ġcreation":6925,"Ġconducted":6926,"better":6927,"Ġstroke":6928,"Ġdimin":6929,"Ġpenetrated":6930,"Ġcheerful":6931,"Ġmilitary":6932,"Ġrevealed":6933,"Ġmotive":6934,"Ġknocked":6935,"Ġhammer":6936,"Ġattentively":6937,"Ġestablished":6938,"Ġapprehens":6939,"Ġprecaution":6940,"Chapter":6941,"Ġconflict":6942,"Picpus":6943,"AD":6944,"France":6945,"bus":6946,"best":6947,"jac":6948,"kin":6949,"possible":6950,"rim":6951,"sister":6952,"tes":6953,"uated":6954,"Ġtale":6955,"Ġtheft":6956,"Ġwoe":6957,"Ġsan":6958,"erves":6959,"Ġbucket":6960,"Ġdate":6961,"asants":6962,"Ġpuzz":6963,"Ġnur":6964,"Ġnice":6965,"omach":6966,"Ġlux":6967,"Ġbeating":6968,"stead":6969,"idents":6970,"Ġreverend":6971,"alone":6972,"ada":6973,"etite":6974,"Ġwearing":6975,"Ġmember":6976,"anded":6977,"ilities":6978,"ĠAND":6979,"Ġsovere":6980,"alling":6981,"ĠCape":6982,"Ġbutter":6983,"Ġshrie":6984,"Ġric":6985,"istic":6986,"olent":6987,"ĠPacific":6988,"igle":6989,"ĠLike":6990,"Ġjet":6991,"odule":6992,"mean":6993,"Ġadored":6994,"Ġgrou":6995,"Ġdisgu":6996,"Ġblame":6997,"Ġbride":6998,"----":6999,"Ġcounted":7000,"Ġpassport":7001,"Ġretire":7002,"Ġprice":7003,"Ġaccused":7004,"Ġlasted":7005,"Ġcoarse":7006,"pleasant":7007,"Ġloving":7008,"Ġsurve":7009,"Ġguessed":7010,"Ġconfined":7011,"Ġchanced":7012,"Ġwanting":7013,"attention":7014,"prob":7015,"lishment":7016,"success":7017,"Ġdetail":7018,"Ġcharm":7019,"Ġcharged":7020,"Ġincome":7021,"Ġhelped":7022,"Ġsentiment":7023,"Ġdepth":7024,"Ġdestined":7025,"Ġstarting":7026,"Ġparadise":7027,"archy":7028,"Ġtorture":7029,"Ġinterested":7030,"Ġduties":7031,"Ġmasses":7032,"Ġdevotion":7033,"Ġclearly":7034,"Ġapartments":7035,"Ġseparate":7036,"Ġvaguely":7037,"Ġmoonlight":7038,"Ġconclusion":7039,"Ġdeliber":7040,"Ġreligion":7041,"Ġrepresent":7042,"Ġengagement":7043,"Ġcomrades":7044,"Ġninet":7045,"Ġexceedingly":7046,"beneath":7047,"broken":7048,"ĠGerman":7049,"itchen":7050,"conversation":7051,"Ġvelvet":7052,"Ġstolen":7053,"Cour":7054,"Captain":7055,"Jon":7056,"La":7057,"May":7058,"See":7059,"Tell":7060,"Upon":7061,"Was":7062,"dream":7063,"eur":7064,"rase":7065,"sim":7066,"zed":7067,"Ġ8":7068,"Ġign":7069,"rels":7070,"ouch":7071,"Ġbone":7072,"Ġfist":7073,"arme":7074,"Ġnigh":7075,"omp":7076,"Ġling":7077,"Ġren":7078,"ĠMeryton":7079,"Ġdemon":7080,"pended":7081,"Ġconc":7082,"anting":7083,"living":7084,"estial":7085,"osal":7086,"Ġalas":7087,"ĠPor":7088,"ĠLou":7089,"agg":7090,"eling":7091,"ertained":7092,"epublic":7093,"Ġplacing":7094,"Ġthence":7095,"ĠEdward":7096,"Ġanywhere":7097,"Ġhandful":7098,"Ġchin":7099,"avourite":7100,"onsense":7101,"Ġpassers":7102,"Ġretreated":7103,"icken":7104,"Andrea":7105,"Ġthroughout":7106,"Ġfriendship":7107,"excl":7108,"Ġmarin":7109,"Ġperspiration":7110,"pleased":7111,"Ġcommit":7112,"Ġcrimes":7113,"Ġcorners":7114,"mpire":7115,"Ġpursue":7116,"Ġconfusion":7117,"Ġintend":7118,"duced":7119,"arms":7120,"Ġintently":7121,"Ġskull":7122,"ĠKansas":7123,"Ġhelm":7124,"Ġredoubt":7125,"Ġdepos":7126,"Ġtriump":7127,"Ġengine":7128,"Ġceiling":7129,"Ġexamining":7130,"Ġwoods":7131,"Ġcontrast":7132,"Ġelsewhere":7133,"Ġbottle":7134,"ĠWellington":7135,"Ġprayer":7136,"regular":7137,"Ġnarr":7138,"Ġrisen":7139,"Ġhesitated":7140,"Ġprivile":7141,"Ġslipped":7142,"Ġfuneral":7143,"Ġpurchased":7144,"Ġdomestic":7145,"Ġdistinguish":7146,"feeling":7147,"ĠPetit":7148,"Ġdisplayed":7149,"iasm":7150,"Ġwelcome":7151,"Ġinhabitants":7152,"Ġsubstance":7153,"ĠSunday":7154,"Ġdisdain":7155,"Bar":7156,"Dead":7157,"Jacques":7158,"Miss":7159,"OL":7160,"aul":7161,"cold":7162,"fur":7163,"flo":7164,"lin":7165,"lau":7166,"sper":7167,"tree":7168,"isp":7169,"Ġmix":7170,"Ġmute":7171,"Ġfog":7172,"Ġcash":7173,"Ġdaily":7174,"Ġpag":7175,"Ġposit":7176,"Ġincess":7177,"stud":7178,"Ġgathered":7179,"Ġghost":7180,"Ġwhirl":7181,"irass":7182,"Ġwithdrew":7183,"Ġash":7184,"Ġseize":7185,"ĠAg":7186,"Ġsob":7187,"ĠHence":7188,"quick":7189,"toine":7190,"ĠBrujon":7191,"ustrious":7192,"arted":7193,"emb":7194,"ĠTashtego":7195,"Ġupstairs":7196,"ounding":7197,"ĠDu":7198,"Ġworks":7199,"Ġprolong":7200,"Ġcann":7201,"ilet":7202,"Ġenchant":7203,"Ġtrick":7204,"Ġthrowing":7205,"Ġcontents":7206,"Ġscenes":7207,"conven":7208,"Ġassert":7209,"Ġfollows":7210,"ĠAlas":7211,"Ġresting":7212,"Ġrestore":7213,"Ġinsist":7214,"Ġfinds":7215,"Ġtremble":7216,"Ġfalls":7217,"Ġpolic":7218,"Ġpolite":7219,"Ġribb":7220,"ĠLucien":7221,"Ġfinish":7222,"Ġrelation":7223,"worthy":7224,"Ġcalmness":7225,"Ġemotions":7226,"Ġuttering":7227,"Ġprayers":7228,"Ġdisposition":7229,"Ġdescribe":7230,"Ġignorance":7231,"Ġanticip":7232,"ĠGuard":7233,"Thank":7234,"Ġexchanged":7235,"Ġelegant":7236,"Ġphantom":7237,"Ġnumerous":7238,"ĠHenry":7239,"Ġfiend":7240,"Char":7241,"EC":7242,"Fix":7243,"Nor":7244,"Poor":7245,"Rue":7246,"cab":7247,"evid":7248,"fish":7249,"gen":7250,"nut":7251,"ox":7252,"rained":7253,"sum":7254,"vat":7255,"Ġahead":7256,"Ġsen":7257,"hamed":7258,"Ġmould":7259,"itself":7260,"enra":7261,"Ġcunning":7262,"ange":7263,"Ġnations":7264,"omed":7265,"Ġlur":7266,"icted":7267,"Ġecc":7268,"entric":7269,"Ġwaste":7270,"Ġrecei":7271,"Ġnotes":7272,"ifted":7273,"ĠHoly":7274,"usal":7275,"Ġmanage":7276,"Ġshowing":7277,"Ġnod":7278,"ĠTran":7279,"ĠGreen":7280,"cier":7281,"became":7282,"Ġgrotto":7283,"Ġimpl":7284,"Ġclasped":7285,"ĠRepublic":7286,"whose":7287,"deck":7288,"closure":7289,"Ġpear":7290,"ippe":7291,"Ġscaffold":7292,"ships":7293,"withstanding":7294,"Ġends":7295,"Ġhappens":7296,"ĠTholomyÃ¨s":7297,"ĠThÃ©nardiers":7298,"ouncing":7299,"Ġviscount":7300,"coach":7301,"spir":7302,"Ġseconds":7303,"Ġmurdered":7304,"Ġdiary":7305,"Ġobservation":7306,"Ġtrap":7307,"Ġtragic":7308,"Ġceremon":7309,"Ġsecrets":7310,"Ġresolute":7311,"Ġwarning":7312,"Ġdriver":7313,"Ġimagined":7314,"oulat":7315,"Ġconstru":7316,"Ġsensible":7317,"Ġcandles":7318,"Ġbandit":7319,"Ġaffectionate":7320,"ribly":7321,"Ġexecuted":7322,"second":7323,"Ġmirror":7324,"Ġdeliver":7325,"Ġfeverish":7326,"Ġbanks":7327,"Ġoriginal":7328,"Ġfishery":7329,"Ġconvey":7330,"Ġenergy":7331,"Ġmultitude":7332,"Ġcompassion":7333,"Ġrailway":7334,"Ġingen":7335,"Ġfeeble":7336,"Ġtheatre":7337,"Ġborne":7338,"Ġappointed":7339,"overnment":7340,"EL":7341,"Se":7342,"boy":7343,"bishop":7344,"captain":7345,"dem":7346,"green":7347,"kers":7348,"lost":7349,"mes":7350,"pen":7351,"pat":7352,"till":7353,"times":7354,"Ġtour":7355,"inn":7356,"inning":7357,"Ġwip":7358,"ref":7359,"oute":7360,"Ġburned":7361,"Ġdried":7362,"Ġdined":7363,"ases":7364,"Ġhaught":7365,"Ġnails":7366,"âĢĿâĢĶ":7367,"sea":7368,"Ġeating":7369,"Ġdeed":7370,"ĠAuteuil":7371,"antle":7372,"ĠBasque":7373,"Ġexter":7374,"Ġfem":7375,"Ġrow":7376,"emple":7377,"Ġaltar":7378,"apse":7379,"assured":7380,"ivered":7381,"opo":7382,"acks":7383,"bear":7384,"rising":7385,"Ġpoverty":7386,"ĠON":7387,"perceived":7388,"ruelle":7389,"Ġprecip":7390,"pless":7391,"Ġremorse":7392,"Ġthrong":7393,"Ġsmiles":7394,"fear":7395,"Ġimpr":7396,"ĠThou":7397,"compre":7398,"Ġassurance":7399,"Ġexped":7400,"Ġsupported":7401,"Ġarriving":7402,"super":7403,"Ġsailing":7404,"Ġdeeper":7405,"ĠYanina":7406,"phil":7407,"Ġcoloss":7408,"Ġvisitor":7409,"Ġsympt":7410,"consider":7411,"Ġstrongly":7412,"Ġsadly":7413,"Ġreflections":7414,"Ġquarters":7415,"Ġbelonging":7416,"afÃ©":7417,"Ġhistor":7418,"Ġmarks":7419,"Ġcivility":7420,"Ġsettle":7421,"friends":7422,"Ġwitnesses":7423,"Ġconsequently":7424,"corner":7425,"Ġinsurgents":7426,"Ġearnestly":7427,"Ġabandon":7428,"vrerie":7429,"Ġacknowled":7430,"Ġdwelling":7431,"ĠRosings":7432,"Ġuniversal":7433,"oulatruelle":7434,"ED":7435,"Louis":7436,"Mar":7437,"_)":7438,"cil":7439,"cuse":7440,"div":7441,"ev":7442,"gener":7443,"mates":7444,"mathieu":7445,"oham":7446,"rÃ©":7447,"sac":7448,"tic":7449,"trave":7450,"uct":7451,"uced":7452,"vest":7453,"xembourg":7454,"Ġ[":7455,"Ġtip":7456,"Ġtaught":7457,"Ġwaking":7458,"Ġwrapped":7459,"Ġskeleton":7460,"Ġbars":7461,"Ġbuck":7462,"lle":7463,"Ġpile":7464,"Ġpitch":7465,"Ġparent":7466,"Ġeag":7467,"Ġreign":7468,"urst":7469,"Ġstove":7470,"Ġstories":7471,"ilion":7472,"ĠClerval":7473,"told":7474,"Ġshone":7475,"indeed":7476,"ĠToul":7477,"ĠToussaint":7478,"Ġupright":7479,"Ġplans":7480,"Ġuncommon":7481,"Ġsomeone":7482,"Ġquantity":7483,"Ġadjo":7484,"Ġthanked":7485,"began":7486,"Ġdesirous":7487,"close":7488,"Ġentertain":7489,"Ġresc":7490,"ording":7491,"short":7492,"conn":7493,"contr":7494,"Ġchildhood":7495,"compan":7496,"Ġcommission":7497,"Ġsubterranean":7498,"Ġpurple":7499,"iality":7500,"brother":7501,"Ġbedroom":7502,"Ġsteep":7503,"Ġforeign":7504,"hope":7505,"lets":7506,"Ġactions":7507,"ĠLuxembourg":7508,"until":7509,"ĠOnce":7510,"Ġrelations":7511,"object":7512,"ĠDeath":7513,"countenance":7514,"Ġsubjects":7515,"cript":7516,"Ġgallery":7517,"Ġjournal":7518,"offic":7519,"Ġsharks":7520,"Ġvessels":7521,"ĠCarl":7522,"ĠCarconte":7523,"ĠPlumet":7524,"Ġcontempt":7525,"Morcerf":7526,"Ġcomfortable":7527,"Ġwretchedness":7528,"Ġproceeding":7529,"ĠCharles":7530,"Ġweakness":7531,"Ġridic":7532,"Ġrevolt":7533,"Ġpierced":7534,"Ġsmoking":7535,"Ġwondrous":7536,"Ġradiant":7537,"Ġinspired":7538,"Ġgendarmes":7539,"ĠTurk":7540,"About":7541,"Ġclerk":7542,"ĠBaptistin":7543,"Ġruffians":7544,"bruary":7545,"Ġcelestial":7546,"ĠQueen":7547,"500":7548,"Give":7549,"Jane":7550,"bes":7551,"coll":7552,"fellow":7553,"gir":7554,"gave":7555,"horses":7556,"lor":7557,"lad":7558,"lines":7559,"litz":7560,"sight":7561,"sound":7562,"sold":7563,"uche":7564,"vious":7565,"women":7566,"Ġtight":7567,"Ġtide":7568,"inf":7569,"inations":7570,"inction":7571,"Ġwishing":7572,"itby":7573,"Ġcy":7574,"Ġcavern":7575,"Ġdrank":7576,"Ġhint":7577,"Ġinher":7578,"Ġinches":7579,"Ġineff":7580,"Ġnuns":7581,"seven":7582,"sters":7583,"Ġgates":7584,"Ġgrey":7585,"uty":7586,"uttered":7587,"Ġthreshold":7588,"vert":7589,"accept":7590,"Ġstif":7591,"Ġstout":7592,"Ġstated":7593,"ĠMed":7594,"Ġdelivered":7595,"Ġsolic":7596,"ĠCap":7597,"Ġbutton":7598,"ĠSal":7599,"ĠBor":7600,"Ġvoc":7601,"Ġshiver":7602,"artin":7603,"Ġalter":7604,"ĠPemberley":7605,"ĠLittle":7606,"Ġplenty":7607,"Ġimmediate":7608,"Ġenveloped":7609,"Ġblank":7610,"Ġchose":7611,"ĠRoyal":7612,"Ġtraces":7613,"ogue":7614,"Ġcontain":7615,"Ġflood":7616,"omething":7617,"Ġpresently":7618,"Ġpreserve":7619,"Ġconsolation":7620,"Ġconsidering":7621,"Ġhoarse":7622,"Ġfellows":7623,"mpossible":7624,"Ġguest":7625,"Ġmothers":7626,"Ġcheek":7627,"Ġfoam":7628,"Ġincident":7629,"Ġprofit":7630,"Ġsentence":7631,"Only":7632,"Ġcolour":7633,"Ġevidence":7634,"Ġexamine":7635,"cribed":7636,"Ġlaws":7637,"Ġdivided":7638,"Ġoccasionally":7639,"Ġjudgment":7640,"Ġsensations":7641,"Ġfairly":7642,"barric":7643,"Ġexpecting":7644,"Ġdeny":7645,"visible":7646,"Ġdrinking":7647,"Ġspectacle":7648,"Ġefforts":7649,"earth":7650,"Ġcommunication":7651,"Ġgrape":7652,"Ġaudience":7653,"Ġventured":7654,"ENT":7655,"subject":7656,"Ġdiamonds":7657,"Ġgardener":7658,"usterlitz":7659,"Ġtossed":7660,"Ġaxe":7661,"Ġanchor":7662,"Ġhabits":7663,"Ġstupefied":7664,"Ġornam":7665,"Ġcuirass":7666,"Ġsuspected":7667,"AV":7668,"Fernand":7669,"cried":7670,"eau":7671,"gaz":7672,"home":7673,"iven":7674,"luck":7675,"sch":7676,"want":7677,"Ġton":7678,"incess":7679,"Ġwave":7680,"really":7681,"Ġsire":7682,"Ġsighed":7683,"ouching":7684,"Ġbab":7685,"Ġblock":7686,"Ġflies":7687,"Ġdamp":7688,"asked":7689,"Ġhing":7690,"Ġhull":7691,"Ġlone":7692,"othe":7693,"Ġyonder":7694,"Ġyawn":7695,"stant":7696,"Ġge":7697,"Ġgent":7698,"ioned":7699,"tel":7700,"quise":7701,"gend":7702,"ources":7703,"Ġexert":7704,"Ġlear":7705,"igence":7706,"Ġunusual":7707,"ĠEmpire":7708,"often":7709,"ĠNational":7710,"avy":7711,"Ġbrut":7712,"Ġprejud":7713,"olden":7714,"deep":7715,"Ġtrunk":7716,"Ġoffering":7717,"izard":7718,"ierre":7719,"Ġscattered":7720,"Ġrecover":7721,"Ġterm":7722,"Ġwhaleman":7723,"Ġsupposing":7724,"lication":7725,"Ġawakened":7726,"Ġadmired":7727,"Ġprofess":7728,"willing":7729,"disappeared":7730,"Ġlanding":7731,"Ġexcitement":7732,"Ġobserving":7733,"Ġfloating":7734,"Ġglobe":7735,"Ġcolumn":7736,"Ġinvest":7737,"Ġparaly":7738,"Ġprobability":7739,"impossible":7740,"Ġpatience":7741,"Ġsadness":7742,"Ġeffects":7743,"Ġofficial":7744,"Another":7745,"Ġdisposed":7746,"Ġchairs":7747,"maha":7748,"Ġflee":7749,"Ġfirmly":7750,"Ġlift":7751,"Ġawaited":7752,"Ġinhabited":7753,"Ġblew":7754,"Ġharpooneers":7755,"Ġweeping":7756,"Ġdazzled":7757,"Ġgendarme":7758,"Ġcaptured":7759,"Ġseamen":7760,"Ġvicinity":7761,"ĠPresident":7762,"Ġtiger":7763,"Ġshelter":7764,"Ġtroop":7765,"Ġcarpenter":7766,"Jonathan":7767,"Ġeccentric":7768,"Ad":7769,"US":7770,"ai":7771,"bors":7772,"bott":7773,"furn":7774,"gue":7775,"kward":7776,"mos":7777,"mise":7778,"nes":7779,"pir":7780,"phan":7781,"prison":7782,"phew":7783,"sw":7784,"sou":7785,"sit":7786,"tra":7787,"Ġz":7788,"heaven":7789,"Ġain":7790,"Ġaven":7791,"Ġwoke":7792,"refle":7793,"Ġbade":7794,"Ġmates":7795,"Ġmixed":7796,"itations":7797,"Ġfired":7798,"Ġcrest":7799,"esp":7800,"arched":7801,"Ġdict":7802,"Ġpains":7803,"Ġpaving":7804,"Ġinward":7805,"Ġlosing":7806,"Ġeloqu":7807,"Ġreward":7808,"Ġashes":7809,"Ġashamed":7810,"roar":7811,"riolet":7812,"Ġstomach":7813,"Ġserene":7814,"Ġmeat":7815,"Ġhers":7816,"peculiar":7817,"thou":7818,"ĠAss":7819,"Ġalley":7820,"usions":7821,"Ġexquisite":7822,"Ġlee":7823,"Ġleaped":7824,"Ġrushing":7825,"Ġnephew":7826,"oser":7827,"ĠTemple":7828,"ums":7829,"eled":7830,"ertford":7831,"abled":7832,"ĠGeor":7833,"Ġunjust":7834,"Ġspy":7835,"Ġsport":7836,"Ġshake":7837,"Ġdisappear":7838,"Ġprefect":7839,"Ġtrade":7840,"Ġhowling":7841,"mbre":7842,"notes":7843,"Ġpartly":7844,"Ġspec":7845,"Ġbegged":7846,"Ġattic":7847,"Ġsergeant":7848,"Ġendured":7849,"Ġmarrying":7850,"ĠThree":7851,"enses":7852,"Ġwinds":7853,"Ġtelegraph":7854,"Ġcertainty":7855,"Ġ11":7856,"Ġrefrain":7857,"Ġsunrise":7858,"aneously":7859,"Ġintim":7860,"Ġirre":7861,"headed":7862,"ĠBefore":7863,"Ġlesson":7864,"ĠChamps":7865,"Ġbestow":7866,"Ġelement":7867,"ification":7868,"Ġcoldly":7869,"Ġpropri":7870,"Ġtravelled":7871,"flowers":7872,"prot":7873,"smith":7874,"Ġfavour":7875,"factor":7876,"Ġconstant":7877,"Ġmode":7878,"Ġcravat":7879,"Ġsacrific":7880,"Ġresembles":7881,"ĠPlace":7882,"Ġmusk":7883,"Ġguarded":7884,"bbing":7885,"Ġspeedily":7886,"saying":7887,"Ġawaiting":7888,"Ġphrase":7889,"Ġbeasts":7890,"Ġneighborhood":7891,"ĠSpain":7892,"Ġmilk":7893,"Ġbullet":7894,"Ġobstacle":7895,"oltaire":7896,"Ġrepresented":7897,"ĠFelix":7898,"ĠWestenra":7899,"Thanks":7900,"Ġferocious":7901,"!_âĢĿ":7902,"ĠRenfield":7903,"Ġwhiteness":7904,"Ġenthusiasm":7905,"okoham":7906,"Ġecstasy":7907,"Ġbayon":7908,"Ġlawyer":7909,"ĠJacopo":7910,"ĠThÃ©odule":7911,"Courfeyrac":7912,"Ġashore":7913,"ertfordshire":7914,"okohama":7915,"Besides":7916,"IC":7917,"Ma":7918,"RO":7919,"aet":7920,"aille":7921,"dog":7922,"fing":7923,"hon":7924,"iot":7925,"iÃ¨re":7926,"kilt":7927,"mur":7928,"mate":7929,"mÃ©":7930,"nar":7931,"oard":7932,"rs":7933,"rit":7934,"ta":7935,"upp":7936,"wonder":7937,"hether":7938,"inent":7939,"inister":7940,"Ġbon":7941,"enough":7942,"Ġfest":7943,"Ġdancing":7944,"Ġhue":7945,"Ġholes":7946,"Ġpett":7947,"Ġhed":7948,"leave":7949,"Ġnun":7950,"separ":7951,"Ġejac":7952,"velled":7953,"irmed":7954,"Ġforbid":7955,"tem":7956,"ights":7957,"Ġcongrat":7958,"ĠSA":7959,"Ġmanaged":7960,"Ġrul":7961,"Ġroute":7962,"ols":7963,"ĠPass":7964,"ĠLake":7965,"elkilt":7966,"ĠGr":7967,"Ġrosy":7968,"udgel":7969,"Ġcane":7970,"loom":7971,"civil":7972,"Ġenig":7973,"Ġensued":7974,"Ġblouse":7975,"Ġclad":7976,"Ġclung":7977,"ilded":7978,"Ġpassions":7979,"Ġtroub":7980,"actly":7981,"Ġcontaining":7982,"Ġrav":7983,"Ġprudent":7984,"vention":7985,"ĠMonkeys":7986,"Ġconsult":7987,"attering":7988,"Ġhoisted":7989,"Ġinduce":7990,"pocket":7991,"arnival":7992,"Ġsufficed":7993,"Ġnewspap":7994,"Ġservices":7995,"Ġgrandeur":7996,"Ġskill":7997,"Ġsounded":7998,"ernard":7999}